/* Copyright 2020 The TensorFlow Authors. All Rights Reserved.

Licensed under the Apache License, Version 2.0 (the "License");
you may not use this file except in compliance with the License.
You may obtain a copy of the License at

    http://www.apache.org/licenses/LICENSE-2.0

Unless required by applicable law or agreed to in writing, software
distributed under the License is distributed on an "AS IS" BASIS,
WITHOUT WARRANTIES OR CONDITIONS OF ANY KIND, either express or implied.
See the License for the specific language governing permissions and
limitations under the License.

Note: The original file provided by The TensorFlow Authors was modified with our own tflite model.
==============================================================================*/

// Automatically created from a TensorFlow Lite flatbuffer using the command:
// xxd -i model.tflite > model.cc

// This is a standard TensorFlow Lite model file that has been converted into a
// C data array, so it can be easily compiled into a binary for devices that
// don't have a file system.

// See train/README.md for a full description of the creation process.

#include "model.h"

// Keep model aligned to 8 bytes to guarantee aligned 64-bit accesses.
alignas(8) const unsigned char g_model[] = {
  0x1c, 0x00, 0x00, 0x00, 0x54, 0x46, 0x4c, 0x33, 0x14, 0x00, 0x20, 0x00,
  0x1c, 0x00, 0x18, 0x00, 0x14, 0x00, 0x10, 0x00, 0x0c, 0x00, 0x00, 0x00,
  0x08, 0x00, 0x04, 0x00, 0x14, 0x00, 0x00, 0x00, 0x1c, 0x00, 0x00, 0x00,
  0x9c, 0x00, 0x00, 0x00, 0xf4, 0x00, 0x00, 0x00, 0x0c, 0x46, 0x00, 0x00,
  0x1c, 0x46, 0x00, 0x00, 0x38, 0x4c, 0x00, 0x00, 0x03, 0x00, 0x00, 0x00,
  0x01, 0x00, 0x00, 0x00, 0x10, 0x00, 0x00, 0x00, 0x00, 0x00, 0x0a, 0x00,
  0x10, 0x00, 0x0c, 0x00, 0x08, 0x00, 0x04, 0x00, 0x0a, 0x00, 0x00, 0x00,
  0x0c, 0x00, 0x00, 0x00, 0x1c, 0x00, 0x00, 0x00, 0x38, 0x00, 0x00, 0x00,
  0x0f, 0x00, 0x00, 0x00, 0x73, 0x65, 0x72, 0x76, 0x69, 0x6e, 0x67, 0x5f,
  0x64, 0x65, 0x66, 0x61, 0x75, 0x6c, 0x74, 0x00, 0x01, 0x00, 0x00, 0x00,
  0x04, 0x00, 0x00, 0x00, 0x8c, 0xff, 0xff, 0xff, 0x09, 0x00, 0x00, 0x00,
  0x04, 0x00, 0x00, 0x00, 0x07, 0x00, 0x00, 0x00, 0x64, 0x65, 0x6e, 0x73,
  0x65, 0x5f, 0x32, 0x00, 0x01, 0x00, 0x00, 0x00, 0x04, 0x00, 0x00, 0x00,
  0x7e, 0xbb, 0xff, 0xff, 0x04, 0x00, 0x00, 0x00, 0x15, 0x00, 0x00, 0x00,
  0x6e, 0x6f, 0x72, 0x6d, 0x61, 0x6c, 0x69, 0x7a, 0x61, 0x74, 0x69, 0x6f,
  0x6e, 0x5f, 0x31, 0x5f, 0x69, 0x6e, 0x70, 0x75, 0x74, 0x00, 0x00, 0x00,
  0x02, 0x00, 0x00, 0x00, 0x34, 0x00, 0x00, 0x00, 0x04, 0x00, 0x00, 0x00,
  0xdc, 0xff, 0xff, 0xff, 0x0c, 0x00, 0x00, 0x00, 0x04, 0x00, 0x00, 0x00,
  0x13, 0x00, 0x00, 0x00, 0x43, 0x4f, 0x4e, 0x56, 0x45, 0x52, 0x53, 0x49,
  0x4f, 0x4e, 0x5f, 0x4d, 0x45, 0x54, 0x41, 0x44, 0x41, 0x54, 0x41, 0x00,
  0x08, 0x00, 0x0c, 0x00, 0x08, 0x00, 0x04, 0x00, 0x08, 0x00, 0x00, 0x00,
  0x0b, 0x00, 0x00, 0x00, 0x04, 0x00, 0x00, 0x00, 0x13, 0x00, 0x00, 0x00,
  0x6d, 0x69, 0x6e, 0x5f, 0x72, 0x75, 0x6e, 0x74, 0x69, 0x6d, 0x65, 0x5f,
  0x76, 0x65, 0x72, 0x73, 0x69, 0x6f, 0x6e, 0x00, 0x0d, 0x00, 0x00, 0x00,
  0x14, 0x45, 0x00, 0x00, 0x0c, 0x45, 0x00, 0x00, 0xfc, 0x43, 0x00, 0x00,
  0xe4, 0x42, 0x00, 0x00, 0xd4, 0x41, 0x00, 0x00, 0xc0, 0x41, 0x00, 0x00,
  0xb0, 0x01, 0x00, 0x00, 0xa0, 0x00, 0x00, 0x00, 0x98, 0x00, 0x00, 0x00,
  0x90, 0x00, 0x00, 0x00, 0x88, 0x00, 0x00, 0x00, 0x68, 0x00, 0x00, 0x00,
  0x04, 0x00, 0x00, 0x00, 0x36, 0xbc, 0xff, 0xff, 0x04, 0x00, 0x00, 0x00,
  0x54, 0x00, 0x00, 0x00, 0x0c, 0x00, 0x00, 0x00, 0x08, 0x00, 0x0e, 0x00,
  0x08, 0x00, 0x04, 0x00, 0x08, 0x00, 0x00, 0x00, 0x10, 0x00, 0x00, 0x00,
  0x24, 0x00, 0x00, 0x00, 0x00, 0x00, 0x06, 0x00, 0x08, 0x00, 0x04, 0x00,
  0x06, 0x00, 0x00, 0x00, 0x04, 0x00, 0x00, 0x00, 0x00, 0x00, 0x00, 0x00,
  0x00, 0x00, 0x0a, 0x00, 0x10, 0x00, 0x0c, 0x00, 0x08, 0x00, 0x04, 0x00,
  0x0a, 0x00, 0x00, 0x00, 0x02, 0x00, 0x00, 0x00, 0x02, 0x00, 0x00, 0x00,
  0x04, 0x00, 0x00, 0x00, 0x06, 0x00, 0x00, 0x00, 0x32, 0x2e, 0x31, 0x32,
  0x2e, 0x30, 0x00, 0x00, 0x96, 0xbc, 0xff, 0xff, 0x04, 0x00, 0x00, 0x00,
  0x10, 0x00, 0x00, 0x00, 0x31, 0x2e, 0x35, 0x2e, 0x30, 0x00, 0x00, 0x00,
  0x00, 0x00, 0x00, 0x00, 0x00, 0x00, 0x00, 0x00, 0xa4, 0xb5, 0xff, 0xff,
  0xa8, 0xb5, 0xff, 0xff, 0xac, 0xb5, 0xff, 0xff, 0xbe, 0xbc, 0xff, 0xff,
  0x04, 0x00, 0x00, 0x00, 0x00, 0x01, 0x00, 0x00, 0xf1, 0x22, 0xc7, 0x3e,
  0x4c, 0x5c, 0x86, 0xbb, 0x9e, 0x36, 0xcf, 0x3e, 0xf2, 0x7b, 0x01, 0x3d,
  0xd1, 0x41, 0x00, 0x3f, 0xd0, 0x58, 0xb8, 0x3e, 0x4d, 0x9d, 0x3b, 0xbd,
  0x79, 0x1a, 0xeb, 0x3d, 0xb4, 0x72, 0x09, 0x3f, 0x87, 0x67, 0x56, 0xbc,
  0x29, 0x2d, 0x0d, 0x3f, 0xb6, 0xcb, 0xdd, 0xb8, 0x19, 0xf2, 0x88, 0xbf,
  0x72, 0xeb, 0x09, 0xbb, 0x45, 0x74, 0x15, 0x3f, 0x8f, 0x4d, 0x46, 0x40,
  0x4d, 0x16, 0x94, 0xbb, 0x48, 0x13, 0x14, 0x3e, 0xf5, 0x87, 0x10, 0x3f,
  0xb3, 0x57, 0x8f, 0x3e, 0x01, 0xaa, 0xf9, 0x3e, 0x80, 0x55, 0x32, 0xbf,
  0x0d, 0x6c, 0x09, 0x3f, 0xfe, 0x37, 0xa9, 0x3e, 0x28, 0x1e, 0x17, 0x3f,
  0x55, 0x64, 0x2a, 0xc0, 0xb3, 0xee, 0xd4, 0x3e, 0xc8, 0x68, 0x2d, 0xbf,
  0x3d, 0xcb, 0x1b, 0x3a, 0x00, 0x2b, 0x00, 0x40, 0xd5, 0x09, 0xb1, 0x3e,
  0x3b, 0xf1, 0x72, 0x40, 0x52, 0x73, 0x06, 0x3f, 0xe1, 0x65, 0x9d, 0x3e,
  0x0e, 0xcc, 0x3d, 0xc0, 0x48, 0x9e, 0x96, 0x3e, 0x42, 0x97, 0xeb, 0x3e,
  0x5e, 0x7e, 0xc1, 0x3e, 0xf3, 0x0d, 0x18, 0xbc, 0xa1, 0x1e, 0xe3, 0x3e,
  0x00, 0xa6, 0x02, 0x3f, 0xf7, 0x1c, 0x74, 0x40, 0x0e, 0xcd, 0xa5, 0x3f,
  0x44, 0xde, 0x0e, 0x3c, 0x26, 0xe9, 0x40, 0x3f, 0x79, 0xaf, 0xeb, 0x3e,
  0x1f, 0xb8, 0xb0, 0x3e, 0x65, 0xd0, 0x07, 0x3f, 0xde, 0xea, 0xc2, 0x3f,
  0x19, 0xab, 0xc2, 0x3e, 0x56, 0x73, 0x18, 0x3f, 0xae, 0x9a, 0x47, 0x40,
  0x18, 0x51, 0x02, 0x3f, 0x07, 0x1e, 0xb4, 0x3e, 0x2f, 0xc3, 0x03, 0x3f,
  0x82, 0xb4, 0x0f, 0x3f, 0x67, 0xe7, 0x06, 0x3f, 0xab, 0x0d, 0xb3, 0x3e,
  0x9f, 0x30, 0x86, 0x40, 0x87, 0x02, 0x00, 0xbd, 0x2a, 0xc3, 0xf9, 0xbf,
  0xde, 0x3b, 0xfc, 0x3f, 0xe4, 0xf9, 0x99, 0xbf, 0xad, 0xd8, 0x9d, 0x3e,
  0xca, 0xbd, 0xff, 0xff, 0x04, 0x00, 0x00, 0x00, 0x00, 0x40, 0x00, 0x00,
  0x53, 0x8d, 0xbf, 0xbe, 0x3d, 0x03, 0x2c, 0xbe, 0x1f, 0xb2, 0xd0, 0xbe,
  0xa6, 0x87, 0x10, 0xbf, 0x27, 0xc7, 0xc3, 0xbe, 0x05, 0xef, 0xd0, 0xbe,
  0x3f, 0xfe, 0x2b, 0xbf, 0x72, 0xb1, 0xb5, 0xbe, 0x10, 0x08, 0xc5, 0xbe,
  0x69, 0x87, 0x01, 0xbf, 0x9d, 0x69, 0xdb, 0xbe, 0x56, 0x65, 0xec, 0xbe,
  0x31, 0x47, 0x45, 0xbf, 0x74, 0xbb, 0xeb, 0xbe, 0x2a, 0x1a, 0x24, 0xbf,
  0xfc, 0x03, 0xc9, 0xbe, 0xe0, 0xda, 0x41, 0xbd, 0x31, 0x71, 0x2b, 0xbf,
  0x4e, 0xd8, 0x0a, 0xbf, 0x9f, 0xa4, 0x39, 0xbf, 0x4c, 0x33, 0x35, 0xbf,
  0x48, 0xe7, 0x12, 0xbf, 0xcd, 0x3c, 0x42, 0xbf, 0x7f, 0xd3, 0x38, 0xbf,
  0xd5, 0xcf, 0x35, 0xbf, 0x91, 0x95, 0xbb, 0xbd, 0x3a, 0xa7, 0x05, 0xbf,
  0xb0, 0x94, 0x44, 0xbf, 0xd1, 0xf5, 0x19, 0xbf, 0x68, 0x51, 0xe8, 0xbe,
  0x88, 0xa3, 0xfc, 0xbe, 0xce, 0x28, 0x39, 0xbf, 0x7a, 0xd0, 0x0f, 0xbf,
  0xe5, 0x7c, 0x0c, 0xbf, 0x29, 0x7a, 0xa9, 0xbe, 0xf2, 0xa9, 0x01, 0xbf,
  0x27, 0xb5, 0xe3, 0xbe, 0x5b, 0x84, 0x40, 0xbf, 0x12, 0x02, 0x3d, 0xbe,
  0xa7, 0x31, 0xe2, 0xbe, 0x0c, 0x6a, 0x06, 0xbf, 0xdc, 0x39, 0x6c, 0x3d,
  0x7b, 0x22, 0x10, 0xbf, 0xfd, 0x81, 0x25, 0xbf, 0x13, 0x96, 0x1f, 0x3e,
  0xc5, 0xba, 0x42, 0xbf, 0x09, 0x31, 0x1a, 0xbf, 0xfd, 0xee, 0x1d, 0xbf,
  0x5b, 0xa7, 0x2c, 0xbf, 0xc0, 0x7d, 0x66, 0x3c, 0x95, 0xd4, 0x14, 0xbf,
  0x76, 0xb2, 0xd7, 0xbe, 0x5d, 0x69, 0xc4, 0xbe, 0x60, 0x73, 0x0e, 0xbf,
  0x1b, 0xd9, 0x2d, 0xbf, 0x72, 0xa3, 0xf0, 0xbe, 0xb1, 0xca, 0x03, 0xbf,
  0xf3, 0x70, 0x17, 0x3e, 0x59, 0x98, 0xad, 0xbe, 0x3b, 0x87, 0x05, 0xbf,
  0x44, 0xc0, 0x3f, 0xbf, 0xa5, 0x1f, 0x17, 0xbf, 0xcb, 0x6a, 0x3b, 0xbf,
  0xcc, 0xfd, 0x16, 0xbf, 0x47, 0xaa, 0x77, 0xbe, 0x24, 0x15, 0xb1, 0x3d,
  0x63, 0x0f, 0x7b, 0x3d, 0xe4, 0x41, 0x5d, 0x3d, 0x5d, 0xc6, 0xd8, 0xbe,
  0x14, 0x8b, 0xab, 0x3d, 0x3f, 0x74, 0xca, 0xbe, 0xa4, 0x5c, 0x9d, 0xbd,
  0xde, 0x32, 0x6f, 0x3e, 0x27, 0xfd, 0x52, 0xbe, 0x69, 0x38, 0xbd, 0xbc,
  0xd9, 0x94, 0x93, 0xbe, 0x71, 0xa5, 0x54, 0x3f, 0xa4, 0x6a, 0xd1, 0xbe,
  0x44, 0x37, 0x8e, 0xbd, 0x12, 0xc0, 0xb6, 0x3e, 0x0e, 0xe6, 0xf7, 0x3f,
  0xb0, 0x2d, 0x86, 0xbd, 0xfd, 0x01, 0x16, 0x3e, 0xff, 0xd4, 0xe5, 0xbe,
  0xcd, 0xaa, 0x7c, 0x3f, 0xd0, 0xcf, 0x9d, 0x3d, 0xa3, 0x1f, 0x1d, 0xbf,
  0x3f, 0x3a, 0x51, 0xbd, 0x9b, 0xbb, 0xda, 0x3d, 0x13, 0x6b, 0xb0, 0x3e,
  0x7f, 0x9d, 0x11, 0xbe, 0x61, 0xb0, 0xb5, 0x3e, 0x3e, 0x51, 0xa5, 0xbd,
  0x8f, 0x95, 0xfc, 0xbd, 0x26, 0x60, 0xde, 0xbe, 0x6f, 0x61, 0x17, 0xbd,
  0x03, 0xcc, 0xed, 0x3e, 0x41, 0xf3, 0x3b, 0x3e, 0xba, 0xe6, 0x79, 0xbb,
  0xd8, 0x68, 0x44, 0x3e, 0x59, 0x25, 0x0a, 0xbd, 0x81, 0x64, 0x3b, 0xbd,
  0x18, 0xc8, 0xe0, 0x3e, 0x3d, 0x9a, 0x8e, 0x3d, 0xdc, 0x63, 0x1c, 0xbd,
  0xc8, 0x46, 0x8f, 0x3f, 0x30, 0x00, 0x16, 0xbd, 0xbd, 0x05, 0x41, 0xbe,
  0x33, 0xe6, 0x0d, 0x3f, 0x6f, 0x91, 0xe5, 0x3d, 0xbb, 0x9e, 0x1e, 0x3e,
  0xd9, 0xf5, 0x90, 0xbd, 0x14, 0x4f, 0x5e, 0xbe, 0xbd, 0x21, 0x23, 0x3f,
  0x4e, 0xf5, 0x54, 0x3e, 0xd1, 0x7b, 0x1f, 0x3f, 0x5f, 0x5c, 0x41, 0xbe,
  0xc9, 0x3e, 0x1b, 0x3f, 0x15, 0x8d, 0x07, 0xbf, 0x5b, 0xfc, 0x7a, 0xbe,
  0x87, 0x04, 0x09, 0x3e, 0x36, 0xaa, 0xc8, 0x3e, 0x75, 0xce, 0xc2, 0x3e,
  0xd8, 0xb3, 0x9c, 0xbd, 0x80, 0x42, 0x2c, 0xbe, 0x18, 0x96, 0x03, 0xbe,
  0x19, 0xaa, 0xf5, 0x3e, 0x92, 0x8e, 0x49, 0x3d, 0xed, 0x53, 0x41, 0xbf,
  0xcb, 0xb6, 0x03, 0xbf, 0x97, 0xc0, 0x49, 0xbf, 0xac, 0xfe, 0x28, 0xbf,
  0x56, 0x0a, 0x1b, 0xbe, 0x74, 0xb5, 0x09, 0xbf, 0x68, 0xcb, 0x33, 0xbd,
  0x32, 0x5b, 0x24, 0xbf, 0xb4, 0x35, 0xd2, 0xbe, 0x65, 0xa9, 0x4e, 0xbf,
  0x3b, 0x1d, 0x3e, 0xbf, 0xec, 0x72, 0x09, 0x3d, 0x5c, 0xe3, 0x09, 0xbe,
  0xdc, 0xbe, 0x4c, 0xbe, 0x75, 0x23, 0x1c, 0x3e, 0xa4, 0x9c, 0x57, 0xbe,
  0xdc, 0x4f, 0x16, 0xbf, 0xe7, 0xb3, 0x47, 0xbf, 0x30, 0x06, 0xe2, 0xbe,
  0x18, 0x9d, 0x9c, 0xbc, 0x73, 0xf3, 0x1e, 0xbf, 0xac, 0x08, 0x1d, 0x3d,
  0x44, 0x5b, 0x73, 0x3d, 0x43, 0x77, 0xcd, 0xbe, 0x5a, 0x02, 0xcd, 0xbe,
  0x16, 0xf7, 0xc5, 0xbe, 0x65, 0xb5, 0x58, 0x3e, 0x26, 0x15, 0x2b, 0xbf,
  0xce, 0x0b, 0xa9, 0xbd, 0x92, 0xdf, 0xe7, 0xbd, 0x7c, 0x75, 0x35, 0x3d,
  0xa3, 0xdc, 0x3f, 0xbf, 0x74, 0x49, 0x41, 0xbf, 0xc5, 0xa8, 0xe9, 0xbe,
  0x9c, 0x5d, 0x4c, 0xbe, 0xeb, 0x35, 0x12, 0x3e, 0x1d, 0x6b, 0x0e, 0xbf,
  0xa8, 0xdb, 0x20, 0xbf, 0x12, 0x09, 0x93, 0x3d, 0xb2, 0xca, 0x37, 0xbf,
  0xa6, 0xa6, 0x22, 0xbf, 0xf7, 0x4d, 0x35, 0xbf, 0xf0, 0x4f, 0x34, 0xbf,
  0x91, 0x44, 0x15, 0xbf, 0xfa, 0xe8, 0xdf, 0xbd, 0xbe, 0xf3, 0xdc, 0xbe,
  0xea, 0x1e, 0xef, 0xbe, 0x8b, 0xbd, 0x40, 0x3e, 0x87, 0xce, 0x1a, 0x3e,
  0x40, 0xb2, 0x3d, 0xbb, 0xc9, 0x12, 0x31, 0xbe, 0x69, 0x5c, 0xf5, 0xbe,
  0xcc, 0x5f, 0x3e, 0x3d, 0x50, 0xfb, 0x19, 0xbd, 0x20, 0x99, 0x6a, 0x3c,
  0x92, 0x01, 0x09, 0xbe, 0x95, 0x0b, 0xd7, 0xbd, 0xef, 0x43, 0x1f, 0x3e,
  0xe3, 0xd7, 0x50, 0xbf, 0xdb, 0x26, 0x58, 0xbe, 0x69, 0x77, 0xd6, 0xbe,
  0x0d, 0x05, 0xe1, 0xbe, 0x9c, 0xef, 0x0b, 0xbf, 0x3e, 0xa4, 0x82, 0x3d,
  0x50, 0x14, 0x51, 0xbb, 0xf7, 0xd1, 0x4a, 0x3e, 0xd3, 0x2a, 0xd0, 0xbd,
  0x36, 0x8f, 0x8b, 0xbe, 0x00, 0xae, 0xbc, 0xbe, 0x72, 0x1f, 0x0d, 0x3d,
  0x46, 0xb8, 0xb0, 0xbe, 0x51, 0x90, 0x54, 0xbe, 0xc7, 0x3b, 0x23, 0xbf,
  0x6e, 0x17, 0xa5, 0xbd, 0xe5, 0x9f, 0x45, 0xbe, 0xa1, 0xf7, 0x76, 0x3d,
  0x03, 0xec, 0x33, 0x3f, 0x74, 0x31, 0x10, 0xbf, 0x39, 0xfe, 0xb9, 0xbe,
  0x3e, 0xfa, 0xa0, 0x3e, 0x58, 0xac, 0x04, 0x40, 0x28, 0xf4, 0x4c, 0x3d,
  0x82, 0x42, 0x73, 0xbe, 0xda, 0xe0, 0x02, 0xbe, 0x75, 0xa1, 0xa9, 0x3f,
  0x0c, 0xaa, 0x3a, 0xbe, 0x38, 0xa9, 0xc4, 0xbe, 0x0d, 0xc6, 0xb3, 0x3a,
  0xaa, 0x68, 0x98, 0xbe, 0x62, 0xe0, 0xb1, 0x3e, 0x63, 0x40, 0x30, 0xbe,
  0x14, 0x39, 0x17, 0xbe, 0x5e, 0x84, 0xb8, 0xbe, 0xce, 0xa8, 0xe7, 0xbe,
  0xf9, 0xa4, 0xe5, 0xbe, 0xed, 0xbe, 0x65, 0xbe, 0xe8, 0x47, 0xc5, 0x3c,
  0xb1, 0x89, 0xf0, 0xbd, 0xbc, 0xeb, 0xde, 0x3d, 0xe8, 0xa4, 0x0e, 0x3e,
  0xcc, 0x29, 0x8a, 0xbe, 0x61, 0x71, 0xbf, 0x3d, 0x64, 0xba, 0x04, 0x3f,
  0xe1, 0xb5, 0x39, 0x3c, 0x94, 0x59, 0x89, 0x3c, 0x55, 0x26, 0xa3, 0x3f,
  0xbf, 0x99, 0x25, 0xbe, 0x62, 0xe1, 0xa0, 0x3c, 0x28, 0xb8, 0x23, 0x3f,
  0xca, 0x63, 0x0f, 0x3d, 0x19, 0x1e, 0xa4, 0xbe, 0xf1, 0xfb, 0x41, 0x3b,
  0x31, 0x55, 0x87, 0xbe, 0xc1, 0xcf, 0x49, 0x3f, 0x68, 0x85, 0x94, 0x3e,
  0xd3, 0x44, 0x02, 0xbe, 0x89, 0xbe, 0xa2, 0xbe, 0x3a, 0x1c, 0x7f, 0x3f,
  0x0a, 0xc0, 0x15, 0xbf, 0x70, 0x41, 0xdf, 0xbe, 0x56, 0xd1, 0x83, 0xbd,
  0xbf, 0xc5, 0xb5, 0x3e, 0x48, 0x89, 0x38, 0xbe, 0xa4, 0x12, 0x6e, 0x3e,
  0x4e, 0xa0, 0x88, 0xbd, 0x65, 0x31, 0x19, 0xbe, 0x47, 0xbf, 0xb1, 0x3e,
  0x0b, 0x8d, 0x8f, 0x3e, 0xc7, 0xa7, 0x40, 0x3e, 0x05, 0xaf, 0x42, 0x3e,
  0xfa, 0xc1, 0x9a, 0x3d, 0xdf, 0x64, 0x22, 0x3e, 0x05, 0x34, 0x11, 0xbf,
  0x52, 0x77, 0xe4, 0x3d, 0x8b, 0x86, 0xe7, 0xbe, 0xe6, 0x97, 0xe8, 0xbd,
  0xfb, 0xef, 0x51, 0x3e, 0x1c, 0xae, 0xb5, 0xbd, 0xc0, 0xa2, 0x21, 0xbb,
  0xde, 0xb4, 0x1d, 0xbf, 0x77, 0xf7, 0x04, 0xbf, 0x74, 0x18, 0x50, 0xbf,
  0xc9, 0x5e, 0xf5, 0xbe, 0x2a, 0x93, 0x12, 0xbf, 0xbd, 0x3b, 0x18, 0x3e,
  0x5c, 0x57, 0xa3, 0xbd, 0x08, 0x83, 0x1b, 0xbd, 0xed, 0x70, 0xfc, 0xbe,
  0x1c, 0xa7, 0x15, 0x3d, 0x53, 0x50, 0x4e, 0xbf, 0xa1, 0x4d, 0x3f, 0xbf,
  0x24, 0xd1, 0x70, 0x3d, 0xf0, 0xcb, 0xb8, 0xbd, 0x71, 0x52, 0x0d, 0xbe,
  0xfd, 0xa2, 0x1b, 0xbf, 0xa0, 0xb0, 0x7c, 0xbc, 0xe1, 0x63, 0x1f, 0xbf,
  0xdf, 0xff, 0xe4, 0xbe, 0x56, 0x15, 0x21, 0xbf, 0x1e, 0x78, 0x4f, 0xbe,
  0x28, 0x35, 0x90, 0x3c, 0x2e, 0xd2, 0xf4, 0x3d, 0xa1, 0x1a, 0xf5, 0xbe,
  0x44, 0x7d, 0xde, 0xbe, 0xbc, 0xfb, 0x10, 0xbe, 0xe2, 0xd7, 0x57, 0xbe,
  0xb7, 0x07, 0xe9, 0xbe, 0xd6, 0x54, 0x05, 0xbe, 0x8e, 0xf2, 0xb8, 0xbd,
  0xd5, 0x42, 0x45, 0x3e, 0xae, 0x2e, 0xa3, 0x3d, 0x6a, 0x84, 0x4e, 0xbe,
  0xb6, 0x82, 0xc6, 0xbe, 0xd6, 0x4a, 0xdd, 0xbd, 0x52, 0x77, 0xa9, 0x3d,
  0x16, 0x03, 0xee, 0xbe, 0x86, 0xe7, 0xd0, 0xbe, 0xd6, 0xdc, 0x04, 0xbf,
  0xdc, 0x01, 0x03, 0xbf, 0xf5, 0x98, 0xeb, 0xbd, 0xd2, 0xc7, 0x3c, 0xbf,
  0xf2, 0x85, 0x1b, 0xbf, 0x32, 0xfa, 0x44, 0xbf, 0x3a, 0xc9, 0x35, 0xbf,
  0xcd, 0x5a, 0xde, 0xbe, 0x6d, 0x00, 0x0a, 0xbf, 0xcd, 0xd8, 0x2a, 0x3e,
  0xc9, 0x4b, 0xd1, 0xbe, 0x8c, 0x0f, 0x6d, 0x3d, 0x40, 0xa9, 0xe1, 0xbd,
  0xa4, 0x55, 0x5c, 0xbe, 0xf6, 0xd7, 0xf5, 0xbe, 0x22, 0xed, 0x25, 0xbf,
  0x45, 0xd8, 0xe0, 0xbd, 0x9d, 0xfa, 0x26, 0xbf, 0x97, 0x09, 0xe4, 0xbe,
  0xc1, 0x1b, 0xbf, 0xbe, 0x13, 0x19, 0xf4, 0xbe, 0x00, 0x06, 0x22, 0xbf,
  0xb2, 0x63, 0x02, 0xbf, 0x89, 0x19, 0x26, 0xbf, 0xe3, 0x32, 0xc6, 0xbd,
  0xaa, 0xb9, 0x44, 0xbf, 0xbf, 0x21, 0xe8, 0xbe, 0xdc, 0x7e, 0x0a, 0xbf,
  0x4a, 0xba, 0x03, 0xbf, 0x83, 0x21, 0x04, 0xbf, 0xed, 0x49, 0xb6, 0xbe,
  0xe2, 0x9d, 0xfc, 0x3d, 0x53, 0xa3, 0xd1, 0xbd, 0x59, 0x73, 0x22, 0xbf,
  0x61, 0x9c, 0x23, 0xbf, 0x2f, 0x46, 0x58, 0x3e, 0x70, 0xb2, 0xfa, 0xbe,
  0xfb, 0x3e, 0xf7, 0xbe, 0xc2, 0xaf, 0xbd, 0xbe, 0x4c, 0x94, 0xd3, 0xbe,
  0x00, 0x10, 0x3b, 0xba, 0x4c, 0xa4, 0x2f, 0xbf, 0x18, 0x82, 0x4e, 0xbd,
  0xcb, 0xf4, 0x2a, 0xbf, 0x88, 0xf8, 0xb5, 0xbe, 0x15, 0x2d, 0x06, 0xbf,
  0xc9, 0x0e, 0x42, 0xbf, 0xa9, 0xd5, 0x58, 0x3e, 0x13, 0x88, 0xdc, 0xbe,
  0x00, 0x25, 0xc8, 0xbc, 0xc4, 0x07, 0xa3, 0xbd, 0x6a, 0xe9, 0x2f, 0xbe,
  0xf6, 0x8c, 0x02, 0xbe, 0xac, 0x40, 0xa7, 0xbd, 0x7e, 0xc1, 0x00, 0xbf,
  0x6a, 0xef, 0x3d, 0xbf, 0xf8, 0xd9, 0x6d, 0xbd, 0xf9, 0x74, 0x05, 0xbf,
  0x14, 0x86, 0xd3, 0xbd, 0xd4, 0x22, 0xeb, 0xbd, 0xbf, 0xb7, 0x38, 0xbf,
  0xb0, 0x5f, 0x2e, 0xbf, 0xa2, 0xec, 0x2f, 0xbf, 0x8b, 0x02, 0x12, 0xbf,
  0xa8, 0x73, 0x0c, 0xbe, 0x07, 0xf6, 0x19, 0xbf, 0x72, 0x36, 0x90, 0x3d,
  0x25, 0xed, 0x31, 0xbf, 0x77, 0xc4, 0x3e, 0xbf, 0x2c, 0x74, 0x01, 0xbf,
  0xf2, 0xb0, 0xc3, 0xbe, 0x00, 0xa7, 0x1b, 0xbf, 0xf7, 0x14, 0x29, 0xbe,
  0xf4, 0xa2, 0x2c, 0xbd, 0x0e, 0xc6, 0x1c, 0xbf, 0x55, 0x49, 0xd2, 0xbe,
  0x57, 0x1f, 0x16, 0xbf, 0x5e, 0x15, 0x23, 0xbf, 0xa6, 0x27, 0x10, 0xbf,
  0x87, 0x40, 0x15, 0xbe, 0x16, 0xfd, 0xb6, 0x3e, 0x2e, 0x7c, 0xe3, 0x3d,
  0x91, 0x85, 0xe1, 0xbc, 0xc7, 0x4d, 0x9e, 0xbe, 0x1b, 0xff, 0x04, 0xbe,
  0x42, 0x80, 0xd9, 0xbe, 0x68, 0x72, 0x1d, 0xbe, 0x0f, 0xbe, 0x38, 0x3f,
  0x4e, 0xdb, 0x08, 0xbe, 0xce, 0xcb, 0xe6, 0x3b, 0x72, 0x30, 0x3c, 0xbe,
  0x73, 0x1f, 0xae, 0x3e, 0x89, 0xdd, 0x09, 0xbf, 0xdd, 0xb3, 0xf4, 0xbc,
  0x20, 0xbc, 0xfd, 0xbd, 0x6c, 0x1b, 0x19, 0x40, 0x13, 0x1e, 0x66, 0x3e,
  0x24, 0x6c, 0x17, 0xbe, 0x9d, 0xce, 0x46, 0xbe, 0xf6, 0x5c, 0x52, 0x3f,
  0x39, 0x05, 0xb5, 0x3d, 0xea, 0x62, 0x3d, 0xbe, 0xa2, 0x80, 0xae, 0xbd,
  0xb1, 0x65, 0x77, 0x3b, 0x5d, 0xb3, 0x4b, 0xbd, 0xb8, 0x00, 0x26, 0x3e,
  0x69, 0x68, 0x4f, 0x3f, 0xda, 0x91, 0xae, 0xbe, 0x71, 0xb4, 0x54, 0xbf,
  0xb1, 0x47, 0xa5, 0xbe, 0x3a, 0xa4, 0x3a, 0x3d, 0x32, 0xf3, 0xed, 0x3e,
  0x07, 0x65, 0xa3, 0x3c, 0x45, 0x1a, 0xc0, 0x3d, 0xb9, 0xce, 0x8b, 0xbd,
  0xa1, 0x91, 0x23, 0x3e, 0x4b, 0xbf, 0x27, 0x3e, 0x03, 0x16, 0x14, 0xbf,
  0xe2, 0xd4, 0x87, 0x3d, 0x4e, 0xc1, 0xa4, 0x3d, 0xad, 0x48, 0x33, 0x40,
  0x14, 0x0c, 0x0f, 0x3e, 0xbb, 0xb3, 0x62, 0x3e, 0xcf, 0x58, 0x28, 0xbf,
  0x89, 0xf5, 0x0d, 0x3e, 0x9d, 0xaa, 0xb9, 0x3d, 0xaf, 0xff, 0xd5, 0x3c,
  0x3f, 0x06, 0xb0, 0xbd, 0xc5, 0xdf, 0x18, 0xbf, 0xea, 0xc6, 0x17, 0x3e,
  0x60, 0xb2, 0x00, 0x3f, 0xbc, 0xcd, 0xf4, 0xbd, 0x09, 0x63, 0x35, 0x3d,
  0x5e, 0xe3, 0xc6, 0xbe, 0x9c, 0x4e, 0x68, 0xbd, 0x0c, 0x9b, 0x34, 0xbe,
  0x0d, 0x84, 0x38, 0xbf, 0xb2, 0xdb, 0x2f, 0x3f, 0x42, 0xe7, 0xf2, 0xbd,
  0x47, 0x7d, 0xe9, 0x3c, 0x35, 0x21, 0x32, 0xbe, 0xbd, 0x84, 0x23, 0x3e,
  0x81, 0x9d, 0x23, 0xbe, 0xc8, 0x5d, 0x69, 0xbd, 0x83, 0xe3, 0x39, 0x3e,
  0xb0, 0x57, 0xb3, 0xbc, 0xd0, 0x24, 0x67, 0xbd, 0xa3, 0x0b, 0x9a, 0xbf,
  0xbe, 0xc0, 0xc7, 0xbd, 0x52, 0x57, 0x38, 0xbe, 0x1e, 0x59, 0x89, 0xbd,
  0xce, 0x5a, 0xf0, 0x3d, 0x23, 0x2d, 0x49, 0xbe, 0x14, 0xbc, 0xa8, 0xbd,
  0xef, 0xa6, 0x8e, 0xbf, 0x12, 0x32, 0x96, 0x3d, 0x9f, 0xd5, 0x1e, 0x3e,
  0x39, 0x64, 0x7e, 0xbf, 0x0a, 0x23, 0xf2, 0xbd, 0xda, 0x95, 0xf4, 0x3d,
  0x3d, 0x39, 0x52, 0x3e, 0x0b, 0xff, 0x04, 0x3e, 0xf0, 0x93, 0x98, 0xbf,
  0x0c, 0xe1, 0x30, 0x3d, 0xe7, 0x96, 0x4b, 0xbf, 0x78, 0x3d, 0x7e, 0xbf,
  0xfc, 0xc5, 0x74, 0x3d, 0xec, 0x4c, 0x98, 0xbd, 0x7d, 0xdc, 0x0f, 0x3e,
  0x1d, 0xf0, 0x37, 0xbe, 0x00, 0xe0, 0x28, 0x3b, 0xac, 0xd5, 0x46, 0xbe,
  0xc7, 0x1e, 0x0f, 0x3e, 0xb7, 0x03, 0x36, 0x3e, 0xe6, 0xb5, 0xdc, 0x3d,
  0xae, 0x09, 0x2c, 0xbe, 0x20, 0x5e, 0x8c, 0xbd, 0xac, 0xda, 0x0d, 0x3d,
  0x2f, 0x50, 0xf8, 0xbd, 0x89, 0x29, 0x13, 0x3e, 0xbc, 0xde, 0x50, 0xbe,
  0xb0, 0xff, 0x8d, 0xbd, 0x54, 0x62, 0xab, 0xbf, 0x3e, 0x2d, 0xe5, 0x3d,
  0x54, 0xcd, 0xf1, 0xbd, 0xec, 0x2e, 0x64, 0x3d, 0x64, 0xcd, 0x0a, 0x3d,
  0x77, 0x82, 0x2f, 0xbe, 0xcf, 0xbd, 0x3d, 0xbe, 0x2c, 0xe0, 0x15, 0xbe,
  0x6c, 0x6d, 0x34, 0xbe, 0x90, 0xbe, 0xb5, 0xbd, 0x89, 0x3f, 0x0c, 0x3e,
  0xc3, 0x05, 0x94, 0xbf, 0xd9, 0xef, 0xf6, 0xbd, 0x7a, 0x30, 0x9b, 0xbf,
  0x82, 0x62, 0xfc, 0x3d, 0x40, 0xdd, 0xaf, 0x3b, 0xc9, 0x3f, 0xa4, 0xbf,
  0xed, 0x75, 0x8a, 0xbf, 0x18, 0xc2, 0x41, 0xbd, 0x06, 0x9b, 0xf4, 0x3d,
  0x09, 0x21, 0x93, 0xbf, 0xe4, 0x2b, 0x69, 0x3d, 0xb0, 0x67, 0x5a, 0xbd,
  0xed, 0x57, 0x25, 0xbe, 0xb0, 0xb1, 0x06, 0xbc, 0x12, 0xa0, 0xef, 0xbd,
  0x37, 0x6e, 0x02, 0x3e, 0x9e, 0xc4, 0x92, 0x3d, 0xc4, 0xe0, 0x95, 0xbd,
  0x12, 0x11, 0x23, 0xbf, 0xc0, 0x99, 0x09, 0xbd, 0xc2, 0x9a, 0x08, 0xbf,
  0x6e, 0x23, 0xa3, 0x3d, 0x88, 0x89, 0x18, 0xbe, 0x20, 0x1c, 0xa7, 0xbc,
  0x22, 0x64, 0x99, 0x3d, 0x9e, 0x5a, 0x0b, 0xbf, 0x84, 0xc2, 0x04, 0xbf,
  0x12, 0xd3, 0x0f, 0xbf, 0x10, 0xf4, 0xc8, 0xbe, 0xfe, 0xdd, 0x01, 0xbf,
  0xda, 0x65, 0x23, 0xbe, 0xe5, 0xfa, 0x53, 0x3e, 0x66, 0xda, 0xe4, 0x3d,
  0xf0, 0x8e, 0xfb, 0xbe, 0x3b, 0x50, 0x0c, 0x3e, 0xeb, 0x72, 0xce, 0xbe,
  0x51, 0xd7, 0xd0, 0xbe, 0xb3, 0x9d, 0x16, 0x3e, 0x19, 0x77, 0x53, 0x3e,
  0xc8, 0xef, 0x0c, 0xbe, 0xaf, 0xe2, 0x0c, 0xbf, 0x10, 0x42, 0x0a, 0xbe,
  0x6e, 0x08, 0x47, 0xbf, 0x25, 0xa9, 0x1f, 0xbf, 0x6d, 0x1f, 0x50, 0xbf,
  0x90, 0xda, 0x96, 0xbc, 0xe2, 0xdf, 0xd2, 0xbd, 0x50, 0x40, 0xc5, 0xbc,
  0x18, 0xdf, 0x49, 0xbf, 0x07, 0xb7, 0x1b, 0xbf, 0x4c, 0xa3, 0xee, 0xbd,
  0xad, 0x4f, 0x5a, 0xbe, 0xba, 0xb1, 0x1d, 0xbf, 0x3a, 0xd7, 0x2f, 0xbe,
  0xfc, 0x18, 0x31, 0x3d, 0x46, 0x74, 0xa8, 0x3d, 0xbc, 0x8e, 0x2a, 0xbd,
  0xec, 0xf8, 0x80, 0xbd, 0x1b, 0x84, 0xe5, 0xbe, 0x5a, 0xc4, 0x95, 0xbd,
  0xc0, 0x36, 0x25, 0xbc, 0x47, 0x19, 0x32, 0xbf, 0x83, 0xca, 0xd5, 0xbe,
  0xa8, 0xdd, 0xfe, 0xbe, 0xd9, 0xd9, 0x48, 0xbf, 0x33, 0x34, 0x32, 0x3e,
  0x1d, 0x81, 0x12, 0xbf, 0x6f, 0xa4, 0x01, 0xbf, 0x2b, 0xd8, 0x2a, 0xbf,
  0xce, 0xa0, 0x15, 0xbf, 0x58, 0x60, 0x48, 0xbf, 0xfa, 0x42, 0xef, 0xbe,
  0xa5, 0x16, 0x00, 0x3e, 0x99, 0x48, 0xce, 0xbe, 0xc8, 0x23, 0x7e, 0xbd,
  0x87, 0xdd, 0x4d, 0x3e, 0x51, 0x0e, 0x0e, 0x3e, 0xf6, 0xaf, 0x4c, 0xbf,
  0xae, 0xc9, 0xab, 0x3d, 0x69, 0x58, 0x2c, 0x3e, 0xbd, 0x4b, 0xcc, 0x3d,
  0x86, 0x63, 0x96, 0xbd, 0xcc, 0xbd, 0xdd, 0x3c, 0xdd, 0xf8, 0x7c, 0x3c,
  0xc5, 0x99, 0xc3, 0xbe, 0x83, 0xd8, 0xef, 0x3d, 0xae, 0x55, 0x2f, 0x3f,
  0x26, 0xd1, 0x24, 0x3d, 0xf7, 0x32, 0x83, 0x3e, 0xa3, 0x9d, 0x55, 0x3d,
  0xfe, 0xad, 0x40, 0x3f, 0x58, 0x42, 0xe3, 0xbe, 0x5e, 0xbd, 0xa7, 0xbe,
  0xff, 0x6f, 0xa5, 0xbb, 0x08, 0x5d, 0x1a, 0x40, 0xd5, 0xfc, 0x5b, 0x3e,
  0x24, 0xfc, 0x29, 0x3c, 0xb0, 0x76, 0xcb, 0x3c, 0x08, 0xb2, 0x7c, 0x3f,
  0xbb, 0x94, 0x37, 0xbe, 0x53, 0xa8, 0xf2, 0xbe, 0x10, 0xfa, 0x81, 0xbd,
  0xdf, 0x3b, 0xff, 0x3d, 0xba, 0x65, 0x8c, 0x3e, 0x6c, 0xcf, 0x6e, 0x3e,
  0xc5, 0x10, 0xea, 0x3e, 0xaf, 0x95, 0x63, 0xbe, 0xc5, 0x00, 0x9d, 0xbe,
  0x17, 0x84, 0xb1, 0xbe, 0x0f, 0x9b, 0x3e, 0x3e, 0xd4, 0x04, 0x0a, 0x3f,
  0x24, 0x8a, 0x10, 0xbe, 0x9c, 0x05, 0xe8, 0x3d, 0x7f, 0xb1, 0xe1, 0xbd,
  0x0e, 0x88, 0x53, 0x3d, 0x7d, 0x29, 0x74, 0x3c, 0xb9, 0x54, 0x26, 0x3f,
  0x1b, 0x98, 0x7f, 0x3e, 0xaa, 0x06, 0xad, 0x3b, 0xc0, 0x68, 0xe9, 0x3f,
  0x37, 0x88, 0x03, 0x3d, 0x8f, 0x11, 0x6f, 0x3e, 0x64, 0xf8, 0x04, 0x3f,
  0xcb, 0x3e, 0x1c, 0xbd, 0xc4, 0x69, 0xc5, 0x3d, 0xf5, 0x26, 0x8f, 0x3d,
  0x15, 0x92, 0xbc, 0xbe, 0x5b, 0xc4, 0xc7, 0x3e, 0x12, 0x28, 0x52, 0x3c,
  0x65, 0x98, 0x39, 0x3f, 0x8c, 0xd6, 0xad, 0xbe, 0x21, 0x5d, 0x00, 0x3f,
  0x33, 0x23, 0xf8, 0xbe, 0xe9, 0x39, 0x03, 0xbf, 0x4f, 0x81, 0x8a, 0xbc,
  0xbb, 0x7c, 0x1e, 0x3f, 0xff, 0x98, 0x19, 0x3f, 0x28, 0xde, 0x90, 0xba,
  0xf3, 0x5e, 0xa3, 0x3e, 0x92, 0xce, 0x38, 0x3e, 0xb4, 0x63, 0xb5, 0x3e,
  0xd0, 0x1f, 0xda, 0x3e, 0x2c, 0x58, 0x29, 0xbf, 0x76, 0x8f, 0xd1, 0xbe,
  0xb5, 0xb5, 0x03, 0xbf, 0xbe, 0x69, 0x39, 0xbf, 0xf2, 0xf8, 0x58, 0xbe,
  0xce, 0x01, 0x3c, 0xbf, 0xb0, 0xfa, 0xfc, 0xbc, 0xbb, 0x8c, 0x14, 0xbf,
  0x1b, 0xdb, 0x29, 0xbf, 0x4b, 0x84, 0x4a, 0xbf, 0x07, 0x7c, 0xe9, 0xbe,
  0x5e, 0x0b, 0xa0, 0xbd, 0x1c, 0x71, 0x5c, 0xbe, 0xa3, 0x49, 0x01, 0x3e,
  0xd6, 0x33, 0xf4, 0x3d, 0x3f, 0x50, 0xe7, 0xbd, 0xe9, 0xdb, 0x26, 0xbf,
  0xed, 0xb8, 0x04, 0xbf, 0xe1, 0x07, 0xc7, 0xbe, 0xf1, 0xa4, 0xef, 0xbd,
  0xe2, 0x2f, 0xea, 0xbe, 0x06, 0x9c, 0xe7, 0x3d, 0xc8, 0xb5, 0x03, 0x3d,
  0xc0, 0xc3, 0xdf, 0xbe, 0xe7, 0x2a, 0xed, 0xbe, 0xb9, 0x54, 0xe3, 0xbe,
  0xbe, 0x3f, 0xe7, 0x3d, 0x71, 0x8d, 0x18, 0xbf, 0xf7, 0xf8, 0x3c, 0x3e,
  0xc4, 0x32, 0xb7, 0xbd, 0x70, 0x41, 0x99, 0x3c, 0x7d, 0x47, 0xd2, 0xbe,
  0xe7, 0x20, 0xc5, 0xbe, 0x77, 0x48, 0x37, 0xbf, 0x00, 0xdc, 0xc6, 0xbc,
  0x0a, 0x5b, 0x18, 0xbe, 0x1c, 0x9f, 0x49, 0xbf, 0x96, 0x13, 0x35, 0xbf,
  0xa4, 0xde, 0x70, 0x3d, 0x9d, 0xbb, 0x42, 0xbf, 0x61, 0x50, 0xe0, 0xbe,
  0xa0, 0x42, 0x12, 0xbf, 0x00, 0x3c, 0x34, 0xbf, 0xca, 0x02, 0x3e, 0xbf,
  0xa0, 0x7b, 0x0a, 0xbc, 0x56, 0xad, 0x17, 0xbf, 0x16, 0x0f, 0x39, 0xbf,
  0x38, 0xff, 0xea, 0x3c, 0x08, 0xf5, 0x26, 0xbe, 0x84, 0xdb, 0x26, 0x3d,
  0xf5, 0x23, 0x48, 0x3e, 0x88, 0x36, 0xe4, 0xbe, 0x18, 0x8e, 0xe9, 0xbd,
  0xc8, 0x43, 0x97, 0x3c, 0x5a, 0x2b, 0xa7, 0xbd, 0x94, 0x78, 0x60, 0x3d,
  0xb0, 0x6f, 0x20, 0xbe, 0xb9, 0x19, 0x3d, 0xbe, 0x71, 0x24, 0xd7, 0xbe,
  0x7b, 0x31, 0x22, 0x3e, 0x17, 0x66, 0xf4, 0xbe, 0x92, 0xa7, 0x25, 0xbf,
  0x1b, 0x0d, 0x1e, 0xbf, 0x84, 0x82, 0x97, 0xbd, 0xd5, 0x09, 0x3a, 0x3e,
  0x9c, 0xbe, 0x9a, 0x3e, 0x00, 0xed, 0x1a, 0xbe, 0xf4, 0x8c, 0x28, 0x3e,
  0x76, 0x03, 0x1d, 0xbe, 0x59, 0x90, 0x13, 0xbe, 0xb1, 0xfd, 0x27, 0xbf,
  0x8f, 0x46, 0xf9, 0xbd, 0x04, 0x23, 0x0b, 0x3f, 0x89, 0xee, 0xc2, 0x3d,
  0x06, 0xa0, 0xe9, 0xbd, 0x6a, 0x50, 0xd5, 0xbd, 0xf0, 0x83, 0x92, 0x3e,
  0xc1, 0xd2, 0x2f, 0xbf, 0x2d, 0x5c, 0xc3, 0xbd, 0x44, 0xe7, 0x5e, 0x3e,
  0x76, 0xfa, 0x14, 0x40, 0xe6, 0x61, 0x2d, 0x3e, 0xc4, 0x9c, 0x63, 0x3d,
  0x1c, 0xb3, 0x0f, 0x3e, 0xfa, 0xbc, 0x86, 0x3f, 0x45, 0x20, 0x73, 0x3b,
  0x6c, 0x56, 0x45, 0xbe, 0x16, 0xfa, 0x83, 0x3e, 0xd1, 0x6a, 0xcc, 0x3d,
  0x64, 0xeb, 0x01, 0xbb, 0xd3, 0x39, 0x02, 0x3e, 0x9c, 0x2e, 0x00, 0x3f,
  0xa3, 0x7c, 0x2e, 0xbf, 0xb8, 0xd0, 0x5b, 0xbf, 0xef, 0xb2, 0x10, 0xbf,
  0x85, 0x0f, 0x9d, 0x3d, 0x24, 0x41, 0xd9, 0x3e, 0x0d, 0xb4, 0x20, 0x3e,
  0x7b, 0x0e, 0x8d, 0x3d, 0xda, 0x19, 0xa3, 0xbc, 0x16, 0x32, 0xd6, 0xbd,
  0xd9, 0x70, 0xae, 0x3c, 0x13, 0x7e, 0xda, 0xbe, 0xbf, 0xdc, 0x07, 0x3e,
  0x3a, 0xe0, 0x41, 0xbd, 0x0a, 0xa3, 0x30, 0x40, 0x62, 0x9a, 0x79, 0x3e,
  0xa3, 0x21, 0x4f, 0x3e, 0x0a, 0xdd, 0x05, 0xbf, 0x33, 0x87, 0x72, 0x3e,
  0x76, 0x2d, 0x38, 0x3d, 0xb0, 0x43, 0xef, 0xbd, 0xf5, 0xb4, 0xb4, 0xbe,
  0x8f, 0xf2, 0x1e, 0xbf, 0x96, 0x38, 0x37, 0xbe, 0xf3, 0x4b, 0xdb, 0x3e,
  0x76, 0x3b, 0x41, 0xbe, 0x11, 0xab, 0x1f, 0x3c, 0x60, 0xd3, 0x1e, 0xbf,
  0xc4, 0xa6, 0xa6, 0xbc, 0x35, 0x68, 0x40, 0xbe, 0x06, 0x49, 0x9e, 0xbe,
  0xa7, 0x8d, 0xef, 0x3e, 0x66, 0x95, 0x90, 0x3e, 0x23, 0x42, 0x0b, 0x3e,
  0x14, 0x2c, 0x14, 0xbd, 0xaa, 0xaa, 0xf9, 0x3d, 0x74, 0x2d, 0x98, 0x3d,
  0xdd, 0x3d, 0x92, 0xbf, 0x68, 0x25, 0x8b, 0xbf, 0x75, 0xba, 0x89, 0xbf,
  0xc3, 0xc1, 0x7b, 0xbf, 0xe2, 0x60, 0x9e, 0xbf, 0xf5, 0xe3, 0x93, 0xbf,
  0x59, 0x52, 0x6c, 0xbf, 0xce, 0x07, 0x88, 0xbf, 0x71, 0x72, 0x14, 0x3e,
  0x9f, 0xf5, 0xa0, 0xbf, 0xac, 0xcd, 0x90, 0xbf, 0x5f, 0x76, 0x60, 0xbf,
  0x69, 0xa4, 0xa8, 0xbf, 0xf1, 0xe1, 0x9a, 0xbf, 0x9e, 0x9b, 0x6e, 0xbf,
  0xf3, 0x9e, 0x92, 0xbf, 0x21, 0xc8, 0x86, 0x3f, 0x45, 0xe9, 0xae, 0xbf,
  0x10, 0xe1, 0x7a, 0xbf, 0x46, 0x19, 0x6b, 0xbf, 0x27, 0x41, 0x72, 0xbf,
  0x8d, 0x76, 0x77, 0xbf, 0xba, 0xbf, 0x96, 0xbf, 0xfb, 0xd8, 0x7b, 0xbf,
  0x5d, 0x8b, 0x81, 0xbf, 0x24, 0x34, 0x96, 0xbf, 0xcd, 0x56, 0x9f, 0xbf,
  0x78, 0x75, 0x33, 0xbe, 0x2a, 0xa4, 0x77, 0xbf, 0x22, 0x81, 0xa8, 0xbf,
  0x33, 0x98, 0x7f, 0xbf, 0xb8, 0x42, 0xa5, 0xbf, 0xfa, 0xcd, 0x99, 0xbd,
  0x45, 0x0c, 0x80, 0xbf, 0x20, 0x71, 0x8e, 0xbf, 0xb5, 0xaa, 0x6a, 0xbf,
  0x97, 0x4f, 0x93, 0xbf, 0x82, 0xc4, 0x9f, 0xbf, 0x70, 0x28, 0xa9, 0xbd,
  0xc9, 0x07, 0x53, 0xbf, 0x8b, 0x66, 0x9d, 0xbf, 0xa5, 0xb5, 0x74, 0x3f,
  0x7f, 0xb9, 0x93, 0xbf, 0xe1, 0x1d, 0x9b, 0xbf, 0xbc, 0x60, 0x32, 0xbe,
  0xec, 0x01, 0xa1, 0xbf, 0x40, 0x83, 0x98, 0xbf, 0x94, 0x33, 0x9a, 0xbf,
  0x6d, 0x1a, 0x73, 0xbf, 0x8b, 0x53, 0xe4, 0xbd, 0xc6, 0x91, 0x8e, 0xbf,
  0xf0, 0x46, 0x39, 0xbc, 0x8b, 0x25, 0x69, 0xbf, 0x45, 0x26, 0xac, 0xbf,
  0x7f, 0x37, 0x69, 0xbf, 0x1b, 0x9c, 0x76, 0xbf, 0x72, 0xad, 0x97, 0xbf,
  0x00, 0x10, 0x50, 0x3b, 0x3f, 0x2d, 0x0b, 0xbe, 0x51, 0x1c, 0xa2, 0xbf,
  0x9b, 0x05, 0x90, 0xbf, 0x77, 0x62, 0x69, 0xbf, 0xc9, 0x87, 0x77, 0xbf,
  0x83, 0x1b, 0x98, 0xbf, 0xc5, 0x0e, 0x85, 0x3e, 0xc2, 0x51, 0xb3, 0x3e,
  0xca, 0x59, 0x66, 0x3e, 0x9e, 0xc8, 0x18, 0x3c, 0xde, 0x41, 0x58, 0xbe,
  0x4a, 0x2b, 0x40, 0x3e, 0xec, 0xee, 0xd8, 0xbe, 0xe6, 0x3a, 0x2e, 0x3e,
  0xc1, 0xff, 0x09, 0x3f, 0xab, 0xc3, 0x97, 0x3d, 0x0a, 0x07, 0x26, 0x3e,
  0xa9, 0xcb, 0x00, 0x3e, 0xbf, 0x2c, 0x8e, 0x3f, 0xd2, 0x6a, 0xbc, 0xbe,
  0xaa, 0x63, 0xe8, 0xbe, 0x31, 0x7a, 0xdb, 0x3e, 0xdb, 0xd5, 0x0d, 0x40,
  0x20, 0xfa, 0xe6, 0x3d, 0xbd, 0x4f, 0xc6, 0xbc, 0x1d, 0xb7, 0x08, 0xbe,
  0xe5, 0x03, 0x8c, 0x3f, 0xa8, 0xf2, 0x4a, 0xbc, 0x21, 0x20, 0xb0, 0xbe,
  0x3d, 0xd7, 0x33, 0x3e, 0x49, 0xfd, 0x57, 0x3e, 0x4f, 0x5e, 0xd8, 0x3e,
  0x1e, 0xe0, 0xcc, 0x3d, 0xa6, 0x23, 0x56, 0x3f, 0x03, 0x3e, 0x41, 0xbe,
  0x67, 0xb4, 0xad, 0xbe, 0x7f, 0xd9, 0xdf, 0xbe, 0x4c, 0x48, 0x8e, 0xbc,
  0xa7, 0xa9, 0xd9, 0x3e, 0xc7, 0x92, 0x3c, 0x3e, 0xe1, 0xa5, 0x36, 0xbc,
  0x30, 0xb3, 0xe5, 0xbc, 0x93, 0x95, 0xd4, 0xbb, 0x84, 0xd3, 0x64, 0xbd,
  0x2b, 0x20, 0x39, 0x3f, 0x2e, 0xa2, 0x61, 0x3e, 0xac, 0x87, 0x54, 0x3d,
  0x12, 0xdd, 0xe6, 0x3f, 0xf1, 0xff, 0x4d, 0xbd, 0x1f, 0xb9, 0xf2, 0x3d,
  0xc7, 0xc8, 0x44, 0x3f, 0x2f, 0xe4, 0xe7, 0x3d, 0x47, 0x38, 0xa2, 0x3e,
  0xcb, 0x2c, 0x5a, 0xbe, 0x3f, 0x7d, 0x86, 0xbe, 0x31, 0xbb, 0x0c, 0x3f,
  0x8e, 0x66, 0x41, 0x3e, 0x33, 0x44, 0x41, 0x3f, 0xbb, 0x05, 0xad, 0xbe,
  0xf5, 0xcc, 0x35, 0x3f, 0x25, 0xa4, 0x11, 0xbf, 0xd9, 0x95, 0x42, 0xbf,
  0xae, 0x13, 0x0e, 0x3e, 0x5c, 0x47, 0x1f, 0x3f, 0x2f, 0xbe, 0x21, 0x3f,
  0x63, 0x4a, 0x43, 0x3e, 0xf2, 0xa2, 0x6b, 0x3e, 0x5c, 0x1f, 0x06, 0x3e,
  0xf3, 0x9e, 0xf1, 0x3e, 0x80, 0x3f, 0x33, 0x3e, 0x19, 0xdb, 0x01, 0xbf,
  0x88, 0xef, 0x41, 0xbf, 0xd0, 0xe6, 0xd8, 0xbe, 0x65, 0xc0, 0x29, 0xbf,
  0x9b, 0x82, 0x02, 0xbf, 0x30, 0x1d, 0x29, 0xbf, 0x23, 0xf7, 0x2f, 0xbf,
  0x22, 0xe5, 0x09, 0xbf, 0x41, 0x09, 0x14, 0xbf, 0xae, 0x74, 0x13, 0xbf,
  0x3c, 0xd2, 0xd1, 0xbe, 0x92, 0x34, 0xe6, 0xbe, 0x60, 0x3d, 0xd8, 0xbe,
  0x18, 0x95, 0x44, 0xbf, 0x23, 0xb5, 0x06, 0xbf, 0x1a, 0x2f, 0x0d, 0xbf,
  0xb4, 0x25, 0xe3, 0xbe, 0xa6, 0x63, 0x19, 0xbf, 0x91, 0xf5, 0x1a, 0xbf,
  0xcf, 0x82, 0x44, 0xbf, 0x55, 0x34, 0x22, 0xbf, 0x6e, 0xbc, 0x32, 0xbf,
  0x46, 0xfb, 0x15, 0xbf, 0x8c, 0x07, 0xe5, 0xbe, 0x20, 0xe0, 0x01, 0xbf,
  0xd8, 0xf0, 0x07, 0xbf, 0xcd, 0x00, 0x00, 0xbf, 0xdc, 0x4a, 0x03, 0xbf,
  0xd5, 0x7d, 0x2b, 0xbf, 0xeb, 0xea, 0x31, 0xbf, 0xeb, 0x79, 0x02, 0xbf,
  0xde, 0x5e, 0x27, 0xbf, 0x63, 0x6e, 0x2c, 0xbf, 0xaa, 0x44, 0x09, 0xbf,
  0x11, 0x85, 0x1a, 0xbf, 0x2a, 0x37, 0x16, 0xbf, 0x37, 0x69, 0xf1, 0xbe,
  0x74, 0x6c, 0xef, 0xbe, 0x31, 0x4d, 0x36, 0xbf, 0x33, 0xe9, 0xf6, 0xbe,
  0x31, 0x4b, 0x2c, 0xbf, 0x63, 0x5e, 0x17, 0xbf, 0xd5, 0xdf, 0x32, 0xbf,
  0x6b, 0xab, 0x27, 0xbf, 0x19, 0x2c, 0x4b, 0xbf, 0xad, 0xca, 0xf1, 0xbe,
  0xc9, 0x20, 0x44, 0xbf, 0x29, 0x08, 0xd3, 0xbe, 0x70, 0x26, 0xe6, 0xbe,
  0x1d, 0x17, 0x33, 0xbf, 0x32, 0x31, 0x25, 0xbf, 0xe0, 0xa9, 0xe0, 0xbe,
  0xb6, 0x16, 0x35, 0xbf, 0xfb, 0x98, 0x22, 0xbf, 0x24, 0xd8, 0x26, 0xbf,
  0xe7, 0x57, 0xad, 0xbe, 0x89, 0x85, 0x0f, 0xbf, 0x68, 0x02, 0x1a, 0xbf,
  0x6e, 0x20, 0xf7, 0xbe, 0xda, 0x94, 0x23, 0xbf, 0x87, 0x56, 0x33, 0xbf,
  0x35, 0x8d, 0x48, 0xbf, 0x31, 0xf4, 0x21, 0xbf, 0x64, 0x51, 0xcd, 0xbe,
  0x91, 0x55, 0xcf, 0x3d, 0xe5, 0x9c, 0x06, 0x3f, 0xb7, 0x0d, 0xf5, 0xbd,
  0xfc, 0x87, 0x37, 0x3e, 0xd1, 0x91, 0x1f, 0x40, 0x9e, 0x25, 0xe1, 0xbc,
  0x70, 0x2b, 0x83, 0x3e, 0xbb, 0x7d, 0x97, 0xbc, 0x1d, 0x3a, 0xaf, 0x3d,
  0x70, 0x2c, 0x67, 0xbe, 0x3b, 0xe9, 0x0e, 0x3e, 0xfc, 0x59, 0x6b, 0x40,
  0x1a, 0x9b, 0x14, 0x40, 0x57, 0x2b, 0x18, 0x40, 0xf2, 0x2b, 0x16, 0x40,
  0x78, 0xd9, 0x7a, 0x40, 0x7f, 0x5b, 0xf7, 0x3f, 0x6d, 0x3f, 0x07, 0xbe,
  0x04, 0xcf, 0xec, 0xbd, 0x44, 0xb5, 0x29, 0x40, 0x02, 0x31, 0xf9, 0x3f,
  0x1b, 0xbf, 0x44, 0x40, 0x68, 0x39, 0xeb, 0x3f, 0x41, 0x3a, 0x86, 0xbc,
  0xfb, 0x19, 0x1a, 0x3e, 0x7b, 0x80, 0x17, 0x3f, 0xdc, 0xd6, 0x82, 0x40,
  0x2a, 0x0c, 0x8b, 0x3d, 0xd8, 0x2c, 0x04, 0x3f, 0x16, 0xe8, 0x6a, 0x3e,
  0x12, 0x2c, 0x66, 0x3f, 0x26, 0x52, 0xad, 0x3c, 0x5c, 0xbf, 0x0c, 0x3d,
  0x5a, 0x63, 0x54, 0x3c, 0x33, 0x77, 0x6c, 0x3d, 0x40, 0x0f, 0x5f, 0x3e,
  0x08, 0x48, 0xa6, 0x3d, 0xd3, 0xd0, 0x3a, 0xbd, 0x35, 0x3c, 0xef, 0x3e,
  0x88, 0xe8, 0x51, 0xbe, 0x50, 0x6e, 0x1c, 0x3e, 0xf1, 0x80, 0x53, 0x40,
  0x9f, 0x3f, 0x0f, 0xbe, 0xe4, 0x52, 0xe3, 0xbd, 0x9f, 0x4e, 0xed, 0x3e,
  0x93, 0x94, 0x40, 0x3e, 0x5d, 0x34, 0x48, 0xbe, 0xa2, 0xbe, 0x3e, 0x40,
  0xb4, 0x3e, 0x1b, 0x40, 0x85, 0x72, 0x1a, 0x3f, 0x1d, 0xae, 0x8f, 0x40,
  0x99, 0xf5, 0x28, 0x3e, 0x4f, 0xc4, 0x41, 0x40, 0x94, 0xcc, 0x9d, 0x3f,
  0x4f, 0xef, 0x22, 0x3f, 0x5c, 0xad, 0x0e, 0x40, 0xcc, 0x7f, 0x53, 0x40,
  0xd4, 0x07, 0x3b, 0x3f, 0xd6, 0x5e, 0x53, 0xbe, 0x97, 0x58, 0x8e, 0x40,
  0xb1, 0xa6, 0x68, 0x3d, 0x44, 0x30, 0x47, 0xbe, 0xd8, 0xff, 0x83, 0x3f,
  0xa3, 0xe0, 0x17, 0x40, 0x6c, 0x72, 0xaa, 0x3e, 0xf3, 0x0b, 0xb9, 0x3e,
  0x0d, 0x99, 0xc9, 0x3d, 0x10, 0x8f, 0x81, 0x3e, 0xea, 0x4f, 0x48, 0xbe,
  0x58, 0x12, 0x29, 0x3e, 0x34, 0x06, 0x13, 0xbf, 0x08, 0x86, 0x89, 0x3e,
  0x2f, 0x82, 0x05, 0x3f, 0x00, 0xac, 0x17, 0x3e, 0xfb, 0xdc, 0xb2, 0x3e,
  0x74, 0xfc, 0xf5, 0xbe, 0x49, 0x2f, 0xe9, 0x3e, 0xb0, 0x83, 0xb5, 0xbe,
  0x3a, 0xd2, 0xcd, 0xbd, 0x14, 0xf3, 0x3e, 0x3d, 0x28, 0x16, 0x18, 0x40,
  0x63, 0x91, 0xaa, 0x3e, 0x00, 0xd5, 0x89, 0x3e, 0x43, 0x04, 0x2c, 0xbf,
  0x89, 0x43, 0x74, 0x3f, 0x73, 0xd3, 0xa4, 0xbc, 0x4f, 0x2f, 0x8e, 0xbe,
  0xaf, 0x10, 0x91, 0x3e, 0x45, 0x39, 0x22, 0x3e, 0xc3, 0xdc, 0x05, 0x3e,
  0x82, 0x60, 0x1c, 0xbf, 0x07, 0x07, 0x58, 0x3f, 0xcb, 0x0f, 0x08, 0xbf,
  0x6b, 0x05, 0x29, 0xbf, 0x74, 0xa0, 0x3f, 0xbe, 0x28, 0xc5, 0xa4, 0x3d,
  0x49, 0xbf, 0x03, 0x3f, 0xea, 0xf3, 0xbd, 0x3e, 0xc2, 0xed, 0x71, 0xbe,
  0x02, 0x84, 0x23, 0x3d, 0x1d, 0xf3, 0x8f, 0x3e, 0x12, 0x18, 0xe8, 0x3d,
  0xb0, 0x93, 0xb8, 0xbe, 0x39, 0x04, 0x13, 0x3e, 0xbc, 0x04, 0xb2, 0x3e,
  0xd3, 0x65, 0xe9, 0x3f, 0x6a, 0xee, 0x73, 0x3e, 0xed, 0x4b, 0x86, 0x3e,
  0x90, 0x88, 0x26, 0xbf, 0x30, 0xd3, 0x8a, 0x3b, 0x5c, 0xe3, 0x83, 0x3e,
  0x76, 0x96, 0x2a, 0xbf, 0x32, 0xf0, 0x79, 0xbe, 0x78, 0xea, 0xc0, 0xbe,
  0xfa, 0x05, 0x79, 0xbe, 0x1f, 0x22, 0x0a, 0x3f, 0x4e, 0x2b, 0x02, 0xbf,
  0x18, 0x95, 0x06, 0x3f, 0x44, 0xa2, 0x9b, 0xbe, 0xa1, 0xe3, 0x67, 0xbe,
  0xd6, 0x1c, 0x17, 0xbf, 0x20, 0x4b, 0x16, 0xbf, 0x29, 0x86, 0x39, 0x3f,
  0xd0, 0x71, 0xdf, 0xbe, 0xc1, 0x5f, 0x7c, 0x3e, 0x64, 0x4e, 0x8e, 0x3e,
  0x12, 0xa3, 0x31, 0x3e, 0x11, 0x08, 0xca, 0xbc, 0x22, 0xe8, 0x08, 0xbe,
  0xc7, 0xca, 0xe2, 0x3e, 0x37, 0xdb, 0xe8, 0xbd, 0x4f, 0x89, 0x46, 0x3e,
  0x9a, 0x1f, 0xfb, 0xbe, 0xa8, 0x48, 0xc3, 0xbd, 0x90, 0xe4, 0x80, 0x3e,
  0xd8, 0xe3, 0x8d, 0xbd, 0x67, 0x5d, 0x4f, 0xbe, 0x41, 0xc9, 0x14, 0x3d,
  0xdb, 0x26, 0x3d, 0xbd, 0xfb, 0xff, 0xc7, 0x3e, 0x5d, 0x93, 0x1a, 0x3f,
  0x18, 0x76, 0xcd, 0x3c, 0x72, 0x87, 0x17, 0xbf, 0x56, 0xba, 0x83, 0x3f,
  0x8e, 0x47, 0x12, 0x40, 0xf9, 0xf5, 0x08, 0x3d, 0x1e, 0x16, 0x77, 0xbd,
  0x07, 0xd0, 0xdc, 0xbe, 0x48, 0xc2, 0xbd, 0x3e, 0x04, 0x6d, 0xc5, 0x3e,
  0x9e, 0x96, 0x5e, 0xbf, 0x53, 0x6b, 0x49, 0xbe, 0x83, 0x16, 0x7f, 0x3d,
  0x7b, 0x4b, 0x18, 0x3f, 0x31, 0x8f, 0x41, 0x3f, 0xcf, 0x5e, 0x1c, 0x3e,
  0x03, 0x85, 0x05, 0x3f, 0x5d, 0x24, 0x74, 0x3e, 0xc5, 0x47, 0x4e, 0xbe,
  0x1d, 0x75, 0x0e, 0x3e, 0xf0, 0x18, 0x4f, 0xbe, 0x16, 0x8d, 0x05, 0x3e,
  0x79, 0x05, 0x6c, 0x3e, 0x41, 0xeb, 0x4b, 0x3e, 0x48, 0x11, 0x5b, 0x3d,
  0x72, 0x8d, 0xeb, 0xbb, 0x9e, 0x1e, 0xff, 0x3e, 0xdd, 0x5a, 0x1b, 0xbe,
  0xa6, 0xbf, 0x5d, 0xbd, 0x69, 0x79, 0x33, 0x40, 0x68, 0x01, 0x23, 0xbe,
  0xe0, 0xba, 0x34, 0xbe, 0x00, 0x24, 0x4c, 0x3f, 0x15, 0x40, 0x95, 0xbd,
  0xdb, 0xaa, 0x37, 0xbe, 0xaa, 0xf1, 0xc4, 0xbe, 0xa7, 0x87, 0xb9, 0xbe,
  0xaa, 0xfd, 0x18, 0x3f, 0xa6, 0x55, 0x83, 0x3f, 0x42, 0xc8, 0xb8, 0x3d,
  0xf6, 0xaf, 0xe2, 0xbe, 0xb9, 0xae, 0x84, 0x3f, 0xac, 0xfc, 0x37, 0xbf,
  0xe8, 0x61, 0x55, 0xbf, 0x16, 0x19, 0xa1, 0x3e, 0xc1, 0xa8, 0xec, 0x3e,
  0xf8, 0x78, 0x33, 0xbd, 0x6e, 0x56, 0x97, 0x3f, 0xb7, 0x85, 0x2a, 0x3d,
  0x7c, 0xf8, 0xb2, 0xbb, 0x7b, 0x39, 0x4d, 0x3f, 0x57, 0xb6, 0xf1, 0x3f,
  0x76, 0x43, 0xda, 0xbe, 0x69, 0x76, 0x28, 0xbf, 0x20, 0xc1, 0xf1, 0xbe,
  0x06, 0xa5, 0x34, 0xbf, 0xbc, 0x9e, 0xce, 0xbe, 0x68, 0x26, 0xf2, 0xbe,
  0x69, 0x2e, 0x05, 0xbf, 0x5b, 0xdc, 0x20, 0xbf, 0x84, 0xc3, 0x4d, 0xbf,
  0x64, 0x8d, 0x01, 0xbf, 0x64, 0xc1, 0xf0, 0xbe, 0xa4, 0xa8, 0x50, 0xbf,
  0x9f, 0x0e, 0xcb, 0xbe, 0x27, 0x19, 0xc8, 0xbe, 0xd6, 0x7b, 0x0a, 0xbf,
  0xc5, 0x71, 0xd7, 0xbe, 0xe6, 0x79, 0x13, 0xbf, 0x1e, 0x7d, 0x39, 0xbf,
  0x8a, 0x5d, 0xdd, 0xbe, 0xdd, 0x58, 0x13, 0xbf, 0xc6, 0x4b, 0x01, 0xbf,
  0x44, 0x9c, 0xeb, 0xbe, 0x03, 0x1c, 0x1b, 0xbf, 0x21, 0x93, 0x04, 0xbf,
  0x74, 0x68, 0x27, 0xbf, 0x68, 0xb6, 0x29, 0xbf, 0xf5, 0x57, 0xe5, 0xbe,
  0x2e, 0x70, 0x0e, 0xbf, 0x9f, 0x71, 0xfd, 0xbe, 0x10, 0x9e, 0x28, 0xbf,
  0x53, 0xbb, 0x43, 0xbf, 0x1c, 0x4c, 0x47, 0xbf, 0x87, 0x7a, 0x29, 0xbf,
  0x51, 0xb0, 0x40, 0xbf, 0xd2, 0x32, 0x40, 0xbf, 0xd9, 0x72, 0x12, 0xbf,
  0x59, 0x72, 0x08, 0xbf, 0xd5, 0x5e, 0x00, 0xbf, 0x89, 0x5e, 0x3e, 0xbf,
  0xe8, 0x35, 0x00, 0xbf, 0xa4, 0x08, 0x32, 0xbf, 0xf8, 0xdf, 0x31, 0xbf,
  0xd4, 0x27, 0x13, 0xbf, 0xff, 0x27, 0x49, 0xbf, 0xab, 0x6d, 0x0c, 0xbf,
  0x42, 0x81, 0x22, 0xbf, 0x7c, 0xeb, 0xcd, 0xbe, 0xe6, 0x5f, 0x35, 0xbf,
  0x50, 0x7f, 0x00, 0xbf, 0xd4, 0xd6, 0x45, 0xbf, 0xdc, 0x7e, 0x04, 0xbf,
  0xaf, 0x59, 0xdb, 0xbe, 0xfd, 0x86, 0x4d, 0xbf, 0xc1, 0x99, 0x49, 0xbf,
  0x14, 0xb8, 0x0a, 0xbf, 0xec, 0x21, 0x0c, 0xbf, 0x25, 0xc3, 0x39, 0xbf,
  0xef, 0xc0, 0x17, 0xbf, 0xc0, 0x0a, 0x34, 0xbf, 0xc0, 0x84, 0x2e, 0xbf,
  0x84, 0x35, 0x1e, 0xbf, 0xe4, 0xb1, 0x1f, 0xbf, 0xf1, 0xda, 0xfd, 0xbe,
  0x52, 0x19, 0x2a, 0xbf, 0xd4, 0x82, 0x7e, 0xbe, 0xc1, 0xb4, 0x32, 0x3d,
  0x4b, 0x5f, 0xba, 0xbe, 0x22, 0x97, 0x9c, 0xbe, 0x61, 0xf8, 0x10, 0xbe,
  0x92, 0x1c, 0xbf, 0xbe, 0xc6, 0xd5, 0x16, 0xbf, 0x8a, 0x9a, 0x10, 0xbe,
  0xf3, 0x35, 0xde, 0xbe, 0xaa, 0x51, 0x85, 0xbe, 0x42, 0xad, 0x92, 0xbe,
  0x92, 0x66, 0xaf, 0xbd, 0x9c, 0x89, 0x8c, 0x3e, 0xfd, 0x29, 0x1c, 0xbf,
  0x7c, 0xa7, 0x24, 0xbe, 0x55, 0xa3, 0x42, 0xbc, 0x38, 0x93, 0xf0, 0x3f,
  0xb4, 0x29, 0xa7, 0xbe, 0xe9, 0x19, 0x8d, 0xbe, 0x73, 0x08, 0x03, 0xbe,
  0x5b, 0xe4, 0x4c, 0x3f, 0x1c, 0x72, 0x1e, 0xbc, 0x26, 0x5e, 0x27, 0xbe,
  0x20, 0xf5, 0x96, 0xbe, 0xa1, 0xc6, 0xc5, 0xbe, 0x4d, 0x5b, 0x43, 0xbe,
  0x30, 0x17, 0xf7, 0xbe, 0x14, 0x38, 0x7e, 0x3d, 0x3c, 0x70, 0xf8, 0xbe,
  0xd3, 0x21, 0xec, 0xbe, 0x64, 0xd3, 0x99, 0xbe, 0xbf, 0xbe, 0xac, 0xbe,
  0xf2, 0x4b, 0x5b, 0xbe, 0xff, 0xfe, 0xe2, 0xbe, 0x99, 0xe4, 0xc0, 0xbe,
  0x62, 0x3c, 0x91, 0xbe, 0xda, 0xc8, 0xd9, 0xbe, 0x50, 0xba, 0x9b, 0xbe,
  0x40, 0xd9, 0xef, 0xbe, 0xb6, 0x16, 0x52, 0xbe, 0xb1, 0x2d, 0xbf, 0xbd,
  0x27, 0xfc, 0x58, 0x40, 0xf9, 0x56, 0xd0, 0xbe, 0x2a, 0xf1, 0x8a, 0xbd,
  0xcc, 0xf4, 0x25, 0xbf, 0x18, 0xb8, 0xc1, 0xbe, 0x87, 0xc5, 0x88, 0xbe,
  0x6c, 0xd2, 0x72, 0xbe, 0xf6, 0x6b, 0xe6, 0xbe, 0x9d, 0x26, 0xfe, 0xbe,
  0x75, 0xfd, 0x94, 0xbe, 0xb8, 0xba, 0x4c, 0xbd, 0xd0, 0x57, 0xb9, 0xbd,
  0x40, 0x09, 0xcc, 0x3d, 0xaa, 0x59, 0x1b, 0xbf, 0x3a, 0xab, 0x8c, 0xbe,
  0x0d, 0xe5, 0xc1, 0xbd, 0xea, 0x72, 0xae, 0xbe, 0x45, 0x79, 0x5c, 0xbe,
  0x5b, 0x55, 0xe5, 0xbe, 0xdc, 0x5d, 0xf3, 0xbe, 0x05, 0x65, 0x8f, 0xbe,
  0xce, 0x8b, 0xaa, 0x3d, 0x5a, 0x20, 0xe7, 0xbd, 0x02, 0x46, 0xe7, 0x3d,
  0x96, 0x0e, 0xfb, 0x3d, 0x18, 0xa6, 0xc6, 0x3c, 0x46, 0xac, 0xa1, 0xbd,
  0x23, 0xfa, 0x2f, 0xbf, 0xbd, 0x36, 0x50, 0xbe, 0xc7, 0x42, 0x49, 0xbf,
  0xf5, 0x0a, 0x47, 0xbe, 0x50, 0x36, 0xb7, 0xbc, 0x9e, 0x99, 0xf7, 0xbd,
  0xda, 0xe4, 0xd4, 0x3d, 0x15, 0x6e, 0x37, 0xbf, 0xe1, 0x3c, 0x23, 0xbf,
  0x68, 0xc2, 0xf6, 0xbe, 0xae, 0x45, 0x17, 0xbf, 0x3a, 0xa2, 0xce, 0xbe,
  0x4f, 0xf4, 0x15, 0x3e, 0x6d, 0xe5, 0x0e, 0x3e, 0x9a, 0x9e, 0xb8, 0xbd,
  0x9c, 0xaa, 0x46, 0xbf, 0xab, 0x4f, 0xe5, 0xbd, 0x04, 0x01, 0x38, 0xbf,
  0x8d, 0x45, 0x0a, 0xbf, 0xf0, 0x7d, 0x35, 0xbe, 0xc3, 0x60, 0xfd, 0xbd,
  0xfe, 0x76, 0xff, 0x3d, 0x6a, 0xff, 0x02, 0xbf, 0xec, 0x26, 0x46, 0xbe,
  0xa9, 0xd8, 0xea, 0xbe, 0x14, 0xcc, 0xd7, 0xbe, 0x69, 0x49, 0x05, 0xbf,
  0x8f, 0x16, 0x14, 0xbe, 0x15, 0x9e, 0x02, 0x3e, 0x00, 0xa2, 0x30, 0xbe,
  0xc9, 0x3d, 0x2f, 0xbf, 0x9e, 0x66, 0x4d, 0xbf, 0x28, 0xe2, 0x17, 0xbd,
  0xbe, 0xcf, 0x95, 0x3d, 0xd0, 0x2e, 0x06, 0xbf, 0x67, 0x0f, 0x50, 0x3e,
  0x0e, 0xcc, 0x28, 0xbe, 0x00, 0xf9, 0x6f, 0x3c, 0xc9, 0x59, 0x5a, 0x3e,
  0xb6, 0xbe, 0xd1, 0xbd, 0xcd, 0x1c, 0xf7, 0xbe, 0x9a, 0xc9, 0xa9, 0x3d,
  0xd7, 0xa7, 0x1c, 0x3e, 0x97, 0xba, 0x37, 0xbf, 0x20, 0x7f, 0x2e, 0xbf,
  0x5a, 0xcf, 0x44, 0xbf, 0xb6, 0x04, 0x07, 0xbf, 0xca, 0x5f, 0x98, 0xbd,
  0xdf, 0x69, 0x23, 0xbf, 0xfb, 0xcf, 0xc8, 0xbe, 0xf6, 0x45, 0x12, 0xbf,
  0x8f, 0x5d, 0xa3, 0xbe, 0xd4, 0x91, 0x33, 0xbf, 0x62, 0x79, 0x3d, 0xbf,
  0x4e, 0xec, 0xec, 0xbd, 0xf0, 0xc6, 0xc7, 0xbe, 0xd9, 0x74, 0x4a, 0x3e,
  0x9c, 0x69, 0x0b, 0x3d, 0x10, 0xb0, 0x44, 0xbd, 0x86, 0x75, 0x1d, 0xbf,
  0x2d, 0xe2, 0x78, 0xbf, 0xf6, 0x83, 0xda, 0xbd, 0x70, 0x0d, 0x0c, 0x3c,
  0x06, 0x31, 0xab, 0xbd, 0x86, 0xf3, 0x8b, 0x3d, 0x76, 0x0c, 0x87, 0xbf,
  0x40, 0x79, 0xbd, 0xbb, 0xf2, 0x59, 0x46, 0xbf, 0xfc, 0x84, 0x3c, 0x3d,
  0x53, 0x29, 0x40, 0x3e, 0x0e, 0x62, 0x8d, 0xbf, 0x95, 0xdf, 0x01, 0x3e,
  0x7c, 0x4e, 0x3c, 0xbd, 0x9d, 0xee, 0x09, 0x3e, 0x12, 0x2d, 0xf9, 0x3d,
  0x14, 0x9a, 0x41, 0xbe, 0x67, 0x71, 0x10, 0xbe, 0x41, 0xde, 0xc2, 0xbd,
  0x53, 0xf0, 0x8f, 0xbf, 0x40, 0x2d, 0xea, 0xbb, 0x39, 0x23, 0x3d, 0x3e,
  0xfa, 0x69, 0xb7, 0xbd, 0x20, 0x95, 0x1e, 0xbc, 0x9c, 0xf2, 0x3c, 0xbd,
  0x99, 0x7d, 0x49, 0xbf, 0x2c, 0x64, 0x06, 0xbe, 0xd0, 0xac, 0xcd, 0xbc,
  0x26, 0x2e, 0x8f, 0xbd, 0x3a, 0xe7, 0x30, 0xbe, 0x8c, 0x7d, 0x6b, 0x3d,
  0xba, 0xd2, 0xf0, 0x3d, 0xcf, 0x3c, 0x69, 0xbf, 0x09, 0x04, 0x23, 0x3e,
  0x02, 0x6c, 0x89, 0xbf, 0x74, 0xaf, 0x1e, 0x3d, 0x52, 0xe3, 0x9d, 0x3d,
  0x54, 0x79, 0x8f, 0xbd, 0xce, 0x01, 0x90, 0xbd, 0x61, 0xb5, 0x54, 0x3e,
  0x55, 0x18, 0x56, 0xbf, 0x76, 0x1d, 0x02, 0xbe, 0xc0, 0x80, 0xca, 0xbb,
  0x59, 0x1d, 0x83, 0xbf, 0x80, 0x5d, 0xa7, 0x3a, 0xfa, 0x8a, 0x9e, 0x3d,
  0x2a, 0x70, 0x35, 0xbe, 0x49, 0x00, 0x40, 0x3e, 0x88, 0xd6, 0xba, 0xbd,
  0x0c, 0x7f, 0x28, 0xbe, 0x31, 0xcf, 0x1d, 0xbe, 0x8c, 0xa0, 0xac, 0xbd,
  0xc0, 0x0c, 0x18, 0xbd, 0x17, 0xad, 0x20, 0x3e, 0x86, 0xaf, 0xff, 0xbd,
  0x1e, 0x9e, 0xec, 0x3d, 0x74, 0xb6, 0x5b, 0xbd, 0xdf, 0xdd, 0x4b, 0xbe,
  0x7f, 0xd0, 0x5c, 0x3e, 0x00, 0x81, 0x2d, 0xba, 0xf8, 0x5b, 0xb1, 0x3c,
  0x26, 0xd9, 0x47, 0xbf, 0x6a, 0xad, 0x82, 0xbf, 0x25, 0x14, 0x06, 0x3e,
  0x02, 0xc4, 0x2b, 0xbe, 0x8b, 0xb5, 0x06, 0xbf, 0xd6, 0xb7, 0x1f, 0xbf,
  0x45, 0xff, 0xdf, 0xbe, 0x52, 0x8e, 0xc1, 0xbe, 0x3e, 0x19, 0x27, 0xbf,
  0xa4, 0x00, 0x2b, 0xbf, 0xa1, 0xe3, 0x28, 0xbf, 0xed, 0x04, 0x27, 0xbf,
  0x38, 0x38, 0x46, 0xbf, 0x91, 0x6d, 0x49, 0xbf, 0x4c, 0x9b, 0xd7, 0xbe,
  0x11, 0xea, 0xee, 0xbe, 0x85, 0xa6, 0xf8, 0xbe, 0x2a, 0x50, 0x01, 0xbf,
  0xc0, 0x44, 0xe0, 0xbe, 0x4f, 0x75, 0x0f, 0xbf, 0x29, 0x40, 0x16, 0xbf,
  0x95, 0x9c, 0x13, 0xbf, 0xb8, 0xda, 0xde, 0xbe, 0x72, 0x4a, 0x15, 0xbf,
  0x92, 0x2e, 0xdc, 0xbe, 0x1f, 0x59, 0x1f, 0xbf, 0x57, 0x04, 0xde, 0xbe,
  0x29, 0x2f, 0x36, 0xbf, 0x74, 0x68, 0xd4, 0xbe, 0x64, 0x5b, 0xd4, 0xbe,
  0x2e, 0xc0, 0x24, 0xbf, 0x7e, 0xbd, 0x3e, 0xbf, 0x22, 0xb4, 0xd3, 0xbe,
  0x1e, 0xc9, 0xde, 0xbe, 0x0a, 0x22, 0x1b, 0xbf, 0xb6, 0x14, 0xda, 0xbe,
  0xe0, 0x05, 0xef, 0xbe, 0x28, 0x5f, 0x50, 0xbf, 0x43, 0xc8, 0x36, 0xbf,
  0xb1, 0xe3, 0x01, 0xbf, 0x21, 0x1d, 0xdc, 0xbe, 0x07, 0x35, 0x2f, 0xbf,
  0x6e, 0xdd, 0x0a, 0xbf, 0x05, 0x83, 0xf8, 0xbe, 0xe9, 0xcd, 0xf4, 0xbe,
  0x4b, 0x8b, 0x43, 0xbf, 0xae, 0xc4, 0x09, 0xbf, 0xd0, 0x2e, 0x27, 0xbf,
  0xb4, 0x38, 0xee, 0xbe, 0x54, 0x4e, 0x38, 0xbf, 0x13, 0xf2, 0x1d, 0xbf,
  0x42, 0xcf, 0xf4, 0xbe, 0x27, 0xf5, 0xd0, 0xbe, 0x18, 0x3b, 0xf8, 0xbe,
  0x0b, 0xa8, 0x3c, 0xbf, 0x76, 0xa0, 0xe3, 0xbe, 0x59, 0x6a, 0xd7, 0xbe,
  0xec, 0x6a, 0x18, 0xbf, 0x0b, 0xb6, 0x1c, 0xbf, 0x52, 0xa3, 0xd3, 0xbe,
  0x89, 0x87, 0xf0, 0xbe, 0x68, 0x4d, 0x1b, 0xbf, 0xe1, 0x15, 0x25, 0xbf,
  0x90, 0xa8, 0x2c, 0xbf, 0x10, 0x69, 0xd0, 0xbe, 0x3d, 0x2e, 0xe3, 0xbe,
  0x9b, 0x49, 0x03, 0xbf, 0x12, 0xd3, 0xdf, 0xbe, 0xb9, 0x76, 0x19, 0xbf,
  0x00, 0xc0, 0x06, 0xbf, 0x83, 0x4b, 0x37, 0xbf, 0xfe, 0xb0, 0x19, 0xbf,
  0x53, 0x4b, 0x2c, 0xbf, 0x2c, 0x37, 0x41, 0xbf, 0x70, 0xdd, 0xc5, 0xbe,
  0xdd, 0x42, 0x24, 0xbf, 0x8a, 0x3f, 0x31, 0xbf, 0x30, 0x0a, 0x06, 0xbf,
  0xd2, 0x95, 0x4d, 0xbf, 0xc7, 0xef, 0xea, 0xbe, 0x2d, 0x43, 0xe3, 0xbe,
  0xb7, 0xc9, 0x4c, 0xbf, 0xf1, 0x1d, 0xfb, 0xbe, 0x3f, 0x28, 0x44, 0xbf,
  0x43, 0xb0, 0x26, 0xbf, 0xa9, 0x36, 0x11, 0xbf, 0xbf, 0xf2, 0x4c, 0xbf,
  0x80, 0x94, 0x05, 0xbf, 0xd1, 0x93, 0x32, 0xbf, 0xf5, 0x7f, 0x25, 0xbf,
  0xad, 0x07, 0x4b, 0xbf, 0x18, 0xe3, 0x12, 0xbf, 0xde, 0xfb, 0xeb, 0xbe,
  0xdc, 0xa9, 0x09, 0xbf, 0x4c, 0x9d, 0x10, 0xbf, 0xa4, 0x82, 0x0c, 0xbf,
  0xb1, 0x81, 0xd0, 0xbe, 0xf8, 0xf5, 0x3f, 0xbf, 0x77, 0xa7, 0xe0, 0xbe,
  0xce, 0x1e, 0xe4, 0xbe, 0x90, 0x9d, 0x3f, 0xbf, 0xd3, 0x9a, 0xd9, 0xbe,
  0x40, 0x9d, 0x19, 0xbf, 0x52, 0x56, 0xc3, 0xbe, 0x47, 0x08, 0x2a, 0xbf,
  0xb6, 0x11, 0x08, 0xbf, 0xf3, 0x52, 0x4e, 0xbf, 0x4c, 0x0e, 0x1f, 0xbf,
  0x6a, 0xb6, 0x22, 0xbf, 0xff, 0xb3, 0xf6, 0xbe, 0x55, 0xfb, 0xe2, 0xbe,
  0x16, 0x23, 0xf0, 0xbe, 0xc8, 0x3f, 0x02, 0xbf, 0x6d, 0x64, 0x2e, 0xbf,
  0x66, 0x85, 0x16, 0xbf, 0xe7, 0x7b, 0x3d, 0xbf, 0x99, 0xfd, 0x0e, 0xbf,
  0x2d, 0x30, 0x0b, 0xbf, 0xb1, 0x38, 0xde, 0xbe, 0xba, 0xe4, 0xe9, 0xbe,
  0x1b, 0xde, 0x49, 0xbf, 0x0e, 0xf5, 0x48, 0xbf, 0x1a, 0x9e, 0x0d, 0xbf,
  0xbf, 0x96, 0xbc, 0xbe, 0x4e, 0x97, 0x2f, 0xbf, 0x95, 0x0c, 0xdf, 0xbe,
  0x5b, 0xa4, 0xe3, 0xbe, 0xfe, 0x9e, 0xe0, 0xbe, 0x6e, 0x52, 0x0e, 0xbf,
  0xd3, 0xbc, 0x44, 0xbf, 0x42, 0xf2, 0x0a, 0xbf, 0x93, 0x5e, 0xfa, 0xbe,
  0x5f, 0xed, 0x4b, 0xbf, 0x28, 0x81, 0x28, 0xbf, 0xd1, 0x2b, 0x12, 0xbf,
  0x8a, 0x4b, 0xd2, 0xbe, 0x52, 0xfa, 0xdc, 0x3d, 0x20, 0x4e, 0x1c, 0xbf,
  0x22, 0xd3, 0xa8, 0xbd, 0x41, 0x6e, 0x10, 0xbf, 0xc7, 0x64, 0xd7, 0xbe,
  0x2b, 0x9e, 0x46, 0xbf, 0x80, 0xfa, 0x03, 0xbf, 0x9a, 0x7b, 0x31, 0xbe,
  0x77, 0x31, 0x00, 0x3e, 0x77, 0x31, 0xcb, 0xbd, 0xbc, 0x29, 0x58, 0x3d,
  0x38, 0x60, 0xd6, 0xbd, 0x5f, 0x60, 0x22, 0xbf, 0x50, 0xf9, 0x18, 0xbf,
  0x3b, 0x8e, 0x04, 0xbf, 0x34, 0x36, 0xb7, 0xbd, 0x14, 0xc0, 0x15, 0xbf,
  0x8a, 0x2f, 0xfc, 0x3d, 0x31, 0x4c, 0x22, 0x3e, 0x40, 0x45, 0x3e, 0xbf,
  0x7c, 0xeb, 0xcb, 0xbe, 0xb7, 0xd9, 0x33, 0xbf, 0x2d, 0xb9, 0x4c, 0xbe,
  0xe7, 0x5b, 0x24, 0xbf, 0xe3, 0xf7, 0x19, 0xbe, 0x32, 0x0b, 0xe1, 0x3d,
  0xa1, 0xa9, 0x3a, 0xbe, 0xb5, 0xe1, 0xed, 0xbe, 0x20, 0xa2, 0x33, 0xbf,
  0xca, 0xd1, 0x35, 0xbf, 0x33, 0x77, 0x57, 0xbe, 0xc7, 0xc1, 0x29, 0x3e,
  0xb7, 0xbe, 0xed, 0xbe, 0x23, 0x05, 0x1b, 0xbf, 0x3f, 0x54, 0xd7, 0xbd,
  0xee, 0xb8, 0x26, 0xbf, 0xea, 0x4f, 0xf0, 0xbe, 0x15, 0x09, 0x0b, 0xbf,
  0x01, 0x67, 0x12, 0xbf, 0x77, 0xce, 0xdf, 0xbe, 0xe0, 0x7f, 0xb2, 0x3b,
  0xd0, 0x05, 0xcc, 0xbe, 0x9f, 0x2b, 0x16, 0xbf, 0x1f, 0x98, 0x47, 0xbe,
  0x90, 0x6f, 0xd9, 0x3c, 0xae, 0xc2, 0xb4, 0x3d, 0xdc, 0xb1, 0xa0, 0xbd,
  0x0f, 0x01, 0xf7, 0xbe, 0x44, 0x78, 0x9d, 0xbd, 0x16, 0x1a, 0x85, 0x3d,
  0xc0, 0x08, 0x5e, 0xbb, 0xea, 0x41, 0xe6, 0x3d, 0xa1, 0xbe, 0x28, 0x3e,
  0x22, 0x4c, 0xa5, 0x3d, 0xe7, 0x61, 0x3c, 0xbf, 0x8b, 0x3d, 0x2b, 0x3e,
  0x77, 0xce, 0x43, 0xbf, 0xc2, 0x0b, 0xc6, 0xbe, 0x9e, 0xf1, 0x95, 0xbe,
  0xd6, 0x5c, 0x22, 0xbe, 0x7c, 0xa6, 0x27, 0xbf, 0x69, 0x77, 0x13, 0xbf,
  0x9c, 0x0b, 0xf9, 0xbe, 0x42, 0x8f, 0x20, 0xbf, 0x95, 0x2b, 0x1d, 0x3e,
  0x6f, 0x72, 0x2f, 0xbf, 0x5b, 0x66, 0x40, 0xbe, 0x24, 0x14, 0xdc, 0xbe,
  0xff, 0xc6, 0x16, 0xbf, 0xba, 0x3a, 0xd5, 0xbe, 0xe0, 0xdc, 0x3c, 0xbf,
  0xe2, 0x26, 0x56, 0xc0, 0xe4, 0xc8, 0xb0, 0xbd, 0x50, 0x76, 0x34, 0xbe,
  0x31, 0x3f, 0x42, 0xbe, 0x40, 0x70, 0x9a, 0x3b, 0x1b, 0x48, 0x2a, 0xbf,
  0xde, 0xab, 0x02, 0xbf, 0x8b, 0x1a, 0x26, 0xbf, 0x7c, 0x81, 0x44, 0xc0,
  0x3c, 0xfc, 0x10, 0xbf, 0xec, 0x5d, 0x67, 0x3d, 0x87, 0x6a, 0x3e, 0xbe,
  0xff, 0x10, 0x48, 0xbf, 0x35, 0x61, 0x08, 0xbf, 0xfe, 0x4b, 0xf8, 0xbe,
  0x39, 0xbd, 0x3f, 0xc0, 0xd5, 0x0b, 0xd1, 0xbe, 0x78, 0xcb, 0xbc, 0xbc,
  0xce, 0xb3, 0xa1, 0x3d, 0x20, 0x00, 0x6e, 0xbc, 0x86, 0x81, 0x47, 0xbf,
  0x43, 0x38, 0x37, 0xbf, 0x8b, 0xe2, 0x41, 0xbf, 0x80, 0xc8, 0x28, 0xbd,
  0x63, 0x05, 0x1c, 0x3e, 0x04, 0x92, 0x00, 0xbf, 0xd2, 0x39, 0x46, 0xbf,
  0xc0, 0x83, 0x3e, 0xbc, 0x1c, 0x4f, 0xdf, 0xbe, 0x5c, 0x9a, 0xeb, 0xbe,
  0x8a, 0x46, 0xca, 0xbe, 0x96, 0xd9, 0x0a, 0xbf, 0xb3, 0x4b, 0xc9, 0xbe,
  0x10, 0xae, 0x15, 0xbe, 0x72, 0x41, 0xfb, 0xbe, 0xdf, 0xdf, 0x2d, 0xbf,
  0xd2, 0x7b, 0x44, 0xc0, 0xeb, 0x25, 0x4d, 0xc0, 0x52, 0x2a, 0xca, 0x3d,
  0xdc, 0xed, 0x50, 0xc0, 0xc4, 0xd3, 0x2e, 0xbf, 0xa9, 0x57, 0x41, 0xc0,
  0xe0, 0xf0, 0x9b, 0xbd, 0xd0, 0xc7, 0xf7, 0xbc, 0x80, 0x2c, 0x4d, 0xc0,
  0x5b, 0x65, 0x4c, 0xc0, 0x9a, 0x05, 0xe4, 0xbd, 0x99, 0xab, 0xe1, 0xbe,
  0x39, 0x4f, 0x4f, 0xc0, 0x38, 0xd7, 0x06, 0xbf, 0x58, 0xbb, 0xf7, 0xbe,
  0x04, 0xfa, 0x22, 0xbf, 0x80, 0x17, 0x3c, 0xbe, 0xaf, 0x6b, 0xc8, 0xbe,
  0xfa, 0x7b, 0xe1, 0xbd, 0xd9, 0x5b, 0x3a, 0xbf, 0x53, 0x9b, 0xc1, 0xbe,
  0xec, 0xb9, 0x03, 0xbf, 0xa9, 0xd5, 0xc6, 0xbe, 0x43, 0x3b, 0x2c, 0x3e,
  0x4a, 0x98, 0xd5, 0xbe, 0x66, 0xb1, 0xef, 0xbe, 0x92, 0xc7, 0x0c, 0xbf,
  0x56, 0x9d, 0x28, 0xbf, 0x37, 0x39, 0xe6, 0xbe, 0x37, 0xc5, 0x48, 0x3e,
  0x99, 0xe3, 0x4f, 0x3e, 0xb4, 0xbf, 0x7a, 0xbd, 0x9e, 0x02, 0xbb, 0x3d,
  0x0c, 0x7e, 0x4f, 0xbd, 0x95, 0xa2, 0x30, 0xbf, 0xbe, 0x30, 0x0a, 0xbf,
  0x19, 0xee, 0x42, 0xbf, 0x40, 0xd2, 0x65, 0x3b, 0x0b, 0x34, 0xda, 0xbe,
  0x53, 0xf5, 0xdc, 0xbe, 0xf5, 0x09, 0x43, 0xbf, 0xb5, 0x1b, 0x16, 0xbf,
  0xee, 0xe8, 0x09, 0xbe, 0xd0, 0x76, 0xef, 0xbc, 0xca, 0x55, 0x2b, 0xbf,
  0xa7, 0x3f, 0x04, 0xbe, 0x96, 0xdb, 0xa4, 0x3d, 0x27, 0xcc, 0x4d, 0xbe,
  0x4b, 0x9c, 0x38, 0xbf, 0x20, 0x3b, 0x2e, 0xbf, 0x00, 0x64, 0x01, 0xbf,
  0x07, 0x86, 0xb7, 0xbe, 0xaa, 0xd6, 0x02, 0xbf, 0xa7, 0x05, 0x29, 0xbf,
  0x15, 0xd6, 0x03, 0xbf, 0x98, 0xb9, 0x06, 0xbe, 0xaf, 0x02, 0x20, 0xbf,
  0xc1, 0xdc, 0x23, 0xbf, 0x75, 0xd2, 0x4f, 0xbe, 0xbe, 0x62, 0x33, 0xbf,
  0xf5, 0xe4, 0x26, 0xbf, 0x40, 0xc9, 0x4d, 0x3b, 0x2f, 0x43, 0xb2, 0xbe,
  0xcb, 0x8b, 0xe6, 0xbe, 0xec, 0x54, 0x4d, 0x3d, 0xbc, 0x11, 0x55, 0x3d,
  0x64, 0x67, 0x22, 0xbe, 0x85, 0xf6, 0xe1, 0xbd, 0x12, 0x0b, 0x13, 0xbf,
  0x59, 0xb5, 0x1f, 0xbf, 0xad, 0xf0, 0x2b, 0x3e, 0xe0, 0xe5, 0x3b, 0xbc,
  0x25, 0x1c, 0x33, 0xbf, 0xda, 0xe1, 0x2f, 0xbf, 0xc8, 0x89, 0x2b, 0xbe,
  0x11, 0x07, 0xf3, 0xbe, 0x25, 0xa5, 0xe6, 0xbe, 0xc4, 0xc9, 0xc0, 0xbe,
  0x79, 0x61, 0x28, 0xbf, 0x7f, 0xe8, 0x01, 0x3e, 0xba, 0x76, 0x33, 0xbe,
  0x40, 0x3b, 0xc3, 0x3b, 0xcd, 0x62, 0x13, 0x3e, 0x76, 0x41, 0xce, 0xbd,
  0xc2, 0xcb, 0x0c, 0xbe, 0x45, 0x4e, 0x36, 0x3e, 0x9b, 0xea, 0xce, 0xbd,
  0x6d, 0xc3, 0xd7, 0xbd, 0x90, 0xb5, 0x78, 0x3c, 0x06, 0x01, 0x10, 0xbe,
  0x36, 0xe2, 0xe2, 0x3d, 0x6c, 0xc3, 0x09, 0xbe, 0x57, 0xaf, 0xe4, 0xbe,
  0xca, 0x86, 0xdf, 0xbd, 0xfa, 0x42, 0xd4, 0x3d, 0xb8, 0xbb, 0x97, 0xbc,
  0xe6, 0xfb, 0x22, 0xbe, 0x35, 0xfd, 0x29, 0xbe, 0x75, 0x41, 0x29, 0xbe,
  0xbb, 0x6d, 0x48, 0x3e, 0x2c, 0xd5, 0x9a, 0xbe, 0x44, 0x19, 0x5b, 0x3d,
  0xea, 0xe7, 0xf7, 0x3d, 0xe8, 0x1d, 0x51, 0xbd, 0xd6, 0xe2, 0xae, 0x3d,
  0x94, 0x90, 0xed, 0xbd, 0x8c, 0x78, 0x53, 0x3d, 0x35, 0xf6, 0x25, 0x3e,
  0x89, 0x7c, 0x38, 0x3e, 0x40, 0xd9, 0xad, 0xbc, 0x26, 0x05, 0x96, 0x3d,
  0xf0, 0x9e, 0x00, 0x3d, 0x81, 0x23, 0xc7, 0xbd, 0xd0, 0x79, 0x1e, 0x3c,
  0x70, 0xfd, 0x0b, 0x3c, 0x5e, 0x18, 0x47, 0xbe, 0x35, 0x77, 0x25, 0x3e,
  0x92, 0x6c, 0x1f, 0xbe, 0xe4, 0x91, 0x48, 0xbd, 0x10, 0xe1, 0x2d, 0x3c,
  0x06, 0x90, 0x97, 0xbd, 0xca, 0x6b, 0x03, 0xbe, 0x04, 0x6c, 0x3e, 0xbe,
  0xc9, 0x47, 0xe9, 0xbd, 0xa7, 0x9e, 0x01, 0x3e, 0x5e, 0xf4, 0x9e, 0xbd,
  0xb6, 0x74, 0x97, 0x3d, 0x59, 0xc0, 0x03, 0x3e, 0x24, 0x4f, 0x39, 0xbe,
  0x12, 0x86, 0x07, 0xbe, 0xfa, 0x1c, 0xc8, 0x3d, 0x54, 0x5b, 0x3a, 0x3d,
  0x78, 0x78, 0xeb, 0x3c, 0xae, 0x06, 0xb7, 0xbd, 0x60, 0xb6, 0x37, 0xbd,
  0xfc, 0xc3, 0x4e, 0xbe, 0x80, 0x5f, 0xf2, 0x3a, 0x12, 0x34, 0x90, 0x3d,
  0x35, 0xbc, 0x16, 0x3e, 0x4d, 0x5c, 0x23, 0x3e, 0xda, 0x3c, 0x0e, 0xbe,
  0x60, 0x3d, 0xa1, 0xbc, 0x68, 0x7f, 0x10, 0xbe, 0x7f, 0xab, 0x10, 0x3e,
  0xd2, 0x8d, 0xd0, 0x3d, 0xa7, 0x26, 0x92, 0x3d, 0x23, 0xab, 0x05, 0x3f,
  0xbf, 0x43, 0x16, 0xbc, 0xfd, 0xaf, 0x01, 0xbd, 0x22, 0x74, 0x66, 0xbe,
  0xff, 0x4f, 0x29, 0x3e, 0x46, 0xde, 0x37, 0xbe, 0x38, 0xe9, 0x2f, 0x3e,
  0xe7, 0xa5, 0x58, 0x3f, 0x8f, 0xda, 0x0d, 0x3e, 0x68, 0x1b, 0x15, 0x3e,
  0x2d, 0x70, 0x22, 0x3e, 0x29, 0xf4, 0xad, 0x3f, 0xd4, 0x0e, 0x54, 0xbe,
  0x98, 0x66, 0x0a, 0xbf, 0x17, 0xb4, 0xfa, 0x3e, 0x5c, 0x1e, 0x20, 0x40,
  0x5a, 0xe9, 0xb2, 0x3d, 0xff, 0x1e, 0x67, 0xbd, 0x32, 0x8f, 0xda, 0xbe,
  0x76, 0xcb, 0xc2, 0x3f, 0x27, 0xb1, 0x9f, 0xbe, 0xbe, 0xee, 0xd2, 0xbe,
  0x9c, 0xea, 0x54, 0x3e, 0xe7, 0x8b, 0x8b, 0x3e, 0x58, 0x56, 0x19, 0x3f,
  0x83, 0x71, 0xbc, 0xbd, 0xf2, 0xbc, 0x3a, 0x3f, 0xac, 0x17, 0xd7, 0x3c,
  0x45, 0x73, 0xc7, 0x3d, 0xea, 0x51, 0x1f, 0xbf, 0x8a, 0x9c, 0x6c, 0x3e,
  0xb9, 0x9c, 0xf7, 0x3e, 0x28, 0xff, 0xc1, 0xbd, 0x46, 0x0c, 0x06, 0x3e,
  0x09, 0x3c, 0x5d, 0x3e, 0xaf, 0x98, 0x61, 0x3e, 0x12, 0x9c, 0xd8, 0x3d,
  0x82, 0x0d, 0xc4, 0x3e, 0xb4, 0x66, 0x2c, 0x3e, 0x3d, 0x3d, 0xed, 0xbc,
  0xc7, 0xc9, 0x0f, 0x40, 0x36, 0x67, 0xa6, 0x3c, 0xac, 0x70, 0x10, 0x3e,
  0x97, 0x31, 0x03, 0x3f, 0x68, 0xae, 0x3a, 0xbb, 0x2d, 0xf4, 0xe1, 0x3d,
  0x49, 0xb4, 0xbd, 0xbe, 0xd9, 0x8b, 0xae, 0xbe, 0x66, 0xe7, 0x20, 0x3f,
  0x9e, 0x9c, 0xe4, 0x3e, 0x68, 0xe4, 0x2b, 0x3f, 0xa6, 0x5e, 0xed, 0xbd,
  0xb4, 0x56, 0x7a, 0x3f, 0xe8, 0x2b, 0x28, 0xbf, 0x68, 0xb7, 0x0f, 0xbf,
  0x73, 0xf9, 0x04, 0xbd, 0x20, 0x3f, 0xe5, 0x3e, 0x70, 0x5b, 0x0c, 0x3f,
  0x4c, 0x5f, 0xe0, 0x3e, 0x02, 0x1f, 0x9a, 0x3e, 0x41, 0x24, 0x17, 0xbe,
  0xa5, 0x64, 0x13, 0x3f, 0x11, 0x4d, 0xb3, 0x3e, 0xec, 0x76, 0x7d, 0x3e,
  0xda, 0x8d, 0x26, 0x3f, 0x4e, 0xc8, 0x69, 0x3e, 0x6e, 0x44, 0x28, 0xbd,
  0xf2, 0x9a, 0xb2, 0x3f, 0x5d, 0xf4, 0xc8, 0x3d, 0xd7, 0x22, 0x02, 0x3f,
  0xaf, 0xee, 0x19, 0x3e, 0x8f, 0xdb, 0xf8, 0x3e, 0x2d, 0x54, 0x3d, 0x3e,
  0xe3, 0xb6, 0xdd, 0x3d, 0xa9, 0x92, 0x0d, 0x40, 0x91, 0x5f, 0xe0, 0x3f,
  0xf8, 0xbb, 0xc6, 0x3f, 0x8d, 0x27, 0x89, 0x3f, 0xe7, 0xb6, 0x2b, 0x40,
  0xb9, 0xd7, 0x1c, 0x40, 0x57, 0xe4, 0x1a, 0x3e, 0xa8, 0x5e, 0xba, 0x3e,
  0x82, 0x5b, 0xce, 0x3f, 0x7c, 0x4c, 0xa2, 0x3f, 0x76, 0x55, 0x0a, 0x40,
  0xd1, 0x05, 0x91, 0x3f, 0x89, 0x78, 0x09, 0x3e, 0x07, 0x40, 0x6a, 0x3e,
  0x02, 0x50, 0x56, 0x3f, 0x0d, 0xb6, 0x40, 0x40, 0x21, 0x58, 0xec, 0x3e,
  0x16, 0xd5, 0xad, 0x3e, 0x74, 0x3b, 0xa3, 0x3e, 0xd2, 0x84, 0x9b, 0x3e,
  0x47, 0x7b, 0x14, 0x3d, 0x04, 0x84, 0x47, 0x3f, 0xa8, 0xb8, 0x54, 0x3e,
  0x79, 0x08, 0x94, 0x3c, 0x86, 0x16, 0xb3, 0xbd, 0x45, 0x68, 0xdc, 0xbc,
  0xcd, 0xe6, 0xb5, 0x3d, 0x24, 0xa2, 0x19, 0x3f, 0x33, 0xb9, 0x84, 0x3e,
  0x6d, 0x6c, 0x2a, 0xbd, 0xa8, 0x4d, 0x60, 0x40, 0x7e, 0xf9, 0xca, 0x3d,
  0x25, 0x39, 0x81, 0x3e, 0xa8, 0x14, 0x3f, 0x3f, 0x39, 0xc9, 0xe2, 0x3c,
  0xbb, 0x78, 0x88, 0x3e, 0x55, 0x88, 0xeb, 0x3f, 0xb7, 0xd6, 0xad, 0x3f,
  0x1c, 0x84, 0x00, 0x3f, 0x4d, 0xa9, 0x50, 0x40, 0x62, 0xf8, 0x4b, 0x3f,
  0x85, 0x55, 0xcf, 0x3f, 0x3c, 0xa2, 0xa7, 0x3f, 0xbc, 0xf1, 0x5b, 0x3d,
  0x1b, 0x03, 0x89, 0x3f, 0xf7, 0xac, 0x16, 0x40, 0xf4, 0x41, 0xe6, 0x3e,
  0x21, 0xd2, 0xfd, 0x3e, 0xac, 0x0e, 0x4e, 0x40, 0x8a, 0x0c, 0x70, 0x3e,
  0x9a, 0x30, 0x9c, 0x3e, 0xf9, 0xa5, 0x7f, 0x3f, 0x12, 0x13, 0x12, 0x40,
  0xc8, 0x40, 0x10, 0xbe, 0x00, 0x2a, 0xa8, 0xbc, 0x38, 0x44, 0x24, 0xbe,
  0x10, 0x62, 0x9b, 0xbd, 0x5e, 0x81, 0x39, 0xbf, 0x3f, 0x69, 0x13, 0xbe,
  0x9e, 0x81, 0xe0, 0xbe, 0xa0, 0xe0, 0x10, 0xbc, 0x40, 0x15, 0x88, 0xbd,
  0xf4, 0xa8, 0x20, 0x3d, 0x27, 0x1b, 0x49, 0x3e, 0xb0, 0x5d, 0xc8, 0xbe,
  0x62, 0x02, 0xdc, 0xbe, 0x43, 0x11, 0xc8, 0xbe, 0x3d, 0x9b, 0x4e, 0xbf,
  0xdd, 0xea, 0xeb, 0xbe, 0xb0, 0xc1, 0x20, 0xbd, 0xe4, 0x89, 0x48, 0x3d,
  0x2c, 0x95, 0x16, 0xbe, 0xdb, 0x83, 0x32, 0xbf, 0x58, 0x65, 0x68, 0xbd,
  0xd7, 0xba, 0xce, 0xbe, 0x8f, 0x15, 0x0d, 0xbf, 0x70, 0xf8, 0xfd, 0xbc,
  0x00, 0x38, 0x40, 0xbc, 0x80, 0x66, 0x2b, 0xbe, 0x56, 0x37, 0x00, 0xbf,
  0xf6, 0xae, 0xf5, 0x3d, 0xe5, 0x13, 0x17, 0xbf, 0xf2, 0x56, 0x17, 0xbf,
  0x95, 0x02, 0xf2, 0xbe, 0x8b, 0xf5, 0xeb, 0xbd, 0xe1, 0x30, 0x5c, 0x3e,
  0x02, 0xa3, 0x85, 0xbd, 0xd2, 0xd2, 0x26, 0xbf, 0x2d, 0x35, 0x13, 0xbf,
  0xa4, 0xa2, 0x21, 0xbe, 0xe5, 0xe5, 0x3e, 0xbe, 0x09, 0x99, 0xf8, 0xbe,
  0xb6, 0x3d, 0x8b, 0x3d, 0x0a, 0xb7, 0xab, 0x3d, 0xa8, 0x86, 0x0a, 0xbd,
  0xc3, 0x7f, 0xd4, 0xbd, 0xbe, 0xfa, 0x85, 0x3d, 0x01, 0x02, 0xd2, 0xbe,
  0x00, 0xef, 0x31, 0x3c, 0x05, 0x91, 0x57, 0xbe, 0xcb, 0xe3, 0x07, 0xbf,
  0x47, 0x89, 0x41, 0xbf, 0xde, 0xc5, 0xd2, 0xbe, 0x11, 0x62, 0x01, 0xbf,
  0x71, 0x08, 0x3d, 0x3e, 0x21, 0x26, 0x4e, 0xbf, 0x97, 0x9b, 0xef, 0xbe,
  0x9f, 0xde, 0x41, 0xbf, 0x00, 0x07, 0xcc, 0xbe, 0xd9, 0x24, 0xd9, 0xbe,
  0xbe, 0x0c, 0x3f, 0xbf, 0xee, 0x2d, 0xf7, 0xbd, 0x0e, 0xb6, 0x1a, 0xbf,
  0x7f, 0xa5, 0x26, 0x3e, 0x6a, 0xaf, 0x84, 0x3d, 0xbd, 0xd4, 0x34, 0xbe,
  0xfc, 0xcb, 0x40, 0xbf, 0x3d, 0xc6, 0x54, 0x3e, 0xb3, 0xdc, 0x5d, 0x3f,
  0x9d, 0x3a, 0xee, 0x3d, 0xec, 0xd1, 0xa3, 0x3e, 0x74, 0x87, 0x52, 0x40,
  0xb9, 0x97, 0xa7, 0x3e, 0xc3, 0x53, 0x01, 0x3f, 0xd7, 0xbd, 0x5a, 0x3d,
  0xf0, 0xd6, 0x1c, 0x3f, 0x4d, 0x1d, 0xaf, 0x3d, 0x9a, 0xed, 0xbc, 0x3e,
  0xe7, 0x06, 0x89, 0x40, 0x5b, 0xb7, 0x39, 0x40, 0xea, 0x3d, 0x37, 0x40,
  0xbe, 0xe9, 0x2b, 0x40, 0x79, 0xef, 0x8a, 0x40, 0x7c, 0x60, 0x13, 0x40,
  0xc9, 0x9e, 0x95, 0x3e, 0x81, 0x95, 0x79, 0x3d, 0xc6, 0xdb, 0x64, 0x40,
  0x1b, 0xc2, 0x1e, 0x40, 0xd2, 0xc1, 0x69, 0x40, 0xf3, 0xfb, 0x2b, 0x40,
  0x30, 0x8f, 0x3f, 0x3e, 0x32, 0x24, 0x93, 0x3e, 0x13, 0x74, 0x63, 0x3f,
  0xb3, 0x89, 0x9d, 0x40, 0x3e, 0x69, 0x0d, 0x3f, 0x69, 0x56, 0x5b, 0x3f,
  0x3f, 0xd3, 0xb1, 0x3e, 0xee, 0xc4, 0xa2, 0x3f, 0x18, 0x9e, 0x12, 0x3d,
  0xd0, 0xea, 0x40, 0x3f, 0x0d, 0xe0, 0x37, 0x3e, 0x3b, 0xe2, 0x7b, 0x3e,
  0x68, 0x2c, 0xca, 0x3d, 0xd4, 0x72, 0x6a, 0xbb, 0x50, 0x60, 0x97, 0xbd,
  0x1c, 0x38, 0x28, 0x3f, 0x35, 0x42, 0x81, 0x3e, 0xd4, 0x13, 0x9d, 0x3e,
  0xb7, 0x64, 0x75, 0x40, 0x8b, 0x25, 0x81, 0x3e, 0xc5, 0xb6, 0x8a, 0x3d,
  0x2e, 0x3c, 0x47, 0x3f, 0x2e, 0xf9, 0xad, 0x3e, 0x2f, 0xc3, 0xf3, 0x3d,
  0x39, 0xaa, 0x6c, 0x40, 0x06, 0xc8, 0x55, 0x40, 0x9e, 0xd4, 0xd8, 0x3e,
  0x7e, 0x78, 0xa1, 0x40, 0xed, 0xea, 0x25, 0x3f, 0x0a, 0xd0, 0x6e, 0x40,
  0x29, 0x0c, 0xbd, 0x3f, 0x7d, 0xdd, 0x87, 0x3f, 0x14, 0xdd, 0x3d, 0x40,
  0xac, 0x77, 0x8c, 0x40, 0x8b, 0xa6, 0xba, 0x3e, 0x22, 0xc6, 0x39, 0x3f,
  0x44, 0xa7, 0xa4, 0x40, 0x3b, 0xf9, 0x7c, 0x3e, 0xc9, 0x61, 0x36, 0x3e,
  0x1a, 0x14, 0xac, 0x3f, 0x04, 0x13, 0x2f, 0x40, 0xb5, 0x2f, 0x15, 0xbf,
  0x21, 0xa2, 0x05, 0xbf, 0x5b, 0x39, 0x05, 0xbf, 0x3e, 0x67, 0x45, 0xbf,
  0x13, 0x45, 0x19, 0xbf, 0x2e, 0xce, 0x27, 0xbf, 0xec, 0xcc, 0x47, 0xbf,
  0x41, 0x83, 0x0d, 0xbf, 0x6f, 0x75, 0x15, 0xbf, 0xc3, 0x1d, 0x33, 0xbf,
  0x28, 0x40, 0x06, 0xbf, 0xdc, 0xde, 0x2a, 0xbf, 0xdc, 0xf4, 0x3f, 0xbf,
  0x45, 0x5b, 0x2a, 0xbf, 0xd3, 0x6f, 0xfb, 0xbe, 0xcc, 0xd4, 0xe1, 0xbe,
  0x37, 0x9b, 0x01, 0xbf, 0x3f, 0xc8, 0x42, 0xbf, 0x6c, 0x87, 0x0e, 0xbf,
  0xf2, 0x35, 0x29, 0xbf, 0x3f, 0x93, 0x1e, 0xbf, 0xa3, 0x61, 0x14, 0xbf,
  0x6b, 0x33, 0x36, 0xbf, 0x2f, 0xab, 0x31, 0xbf, 0xcb, 0xd4, 0x08, 0xbf,
  0xcf, 0xf8, 0x24, 0xbf, 0xa0, 0xbe, 0x41, 0xbf, 0x38, 0xf4, 0xd0, 0xbe,
  0x3c, 0xa9, 0x0e, 0xbf, 0x0b, 0x56, 0xdd, 0xbe, 0x5a, 0xf1, 0x02, 0xbf,
  0xe9, 0xc2, 0x18, 0xbf, 0x36, 0xc1, 0x3f, 0xbf, 0x7b, 0x90, 0x20, 0xbf,
  0xc0, 0x87, 0x41, 0xbf, 0x87, 0x70, 0xc1, 0xbe, 0xdd, 0xb7, 0x13, 0xbf,
  0xb0, 0xb9, 0xc5, 0xbe, 0x19, 0x82, 0xf7, 0xbe, 0xdc, 0x62, 0x32, 0xbf,
  0xdf, 0xb1, 0x21, 0xbf, 0xef, 0x63, 0x2e, 0xbf, 0x52, 0x20, 0x34, 0xbf,
  0xb1, 0xd2, 0x4d, 0xbf, 0x58, 0x0e, 0x27, 0xbf, 0x70, 0xf1, 0xce, 0xbe,
  0x93, 0x17, 0x0f, 0xbf, 0x06, 0xe9, 0x2b, 0xbf, 0xa5, 0x4e, 0xc5, 0xbe,
  0x4c, 0xff, 0x4a, 0xbf, 0xec, 0x06, 0x0a, 0xbf, 0xde, 0x06, 0x0d, 0xbf,
  0xa1, 0x5e, 0x11, 0xbf, 0x75, 0x99, 0x1b, 0xbf, 0x49, 0xde, 0xd3, 0xbe,
  0xbb, 0x10, 0xd0, 0xbe, 0xea, 0x7b, 0x44, 0xbf, 0x75, 0xa5, 0x46, 0xbf,
  0xa0, 0xb8, 0x48, 0xbf, 0xaf, 0x1c, 0x50, 0xbf, 0xe2, 0x87, 0xdc, 0xbe,
  0x5f, 0x9d, 0x16, 0xbf, 0x19, 0x7c, 0x0b, 0xbf, 0x70, 0x88, 0xcf, 0xbe,
  0xb9, 0x03, 0xf5, 0xbe, 0xff, 0xe0, 0xd4, 0xbe, 0x81, 0x09, 0x47, 0xbf,
  0x84, 0xf8, 0x4b, 0xbf, 0xe6, 0x00, 0x3e, 0xbe, 0xa4, 0x8d, 0x10, 0xbf,
  0xa6, 0xb0, 0x2a, 0xbe, 0xd4, 0xf5, 0x4e, 0xbf, 0x67, 0x8a, 0xda, 0xbe,
  0xed, 0x4c, 0x06, 0xbf, 0xd0, 0x18, 0x24, 0xbf, 0xd0, 0x12, 0xa6, 0x3c,
  0x14, 0x0b, 0xbc, 0xbd, 0xf0, 0x29, 0xaf, 0x3c, 0xa1, 0x2f, 0x33, 0x3e,
  0xba, 0xf6, 0xef, 0xbd, 0xff, 0x5b, 0x4e, 0xbf, 0x96, 0x64, 0x41, 0xbf,
  0x28, 0x6d, 0x49, 0xbf, 0x8f, 0xef, 0xd1, 0xbd, 0x6f, 0x92, 0x3b, 0xbf,
  0x52, 0x2b, 0x31, 0xbe, 0x0a, 0x3a, 0xcb, 0x3d, 0xa2, 0x2e, 0x0c, 0xbf,
  0x14, 0xfa, 0x1c, 0xbf, 0x85, 0x9f, 0x10, 0xbf, 0x40, 0xeb, 0xd4, 0xbb,
  0x90, 0xe4, 0xe8, 0xbe, 0x34, 0x99, 0x7d, 0x3d, 0x9a, 0x85, 0x05, 0xbe,
  0x1c, 0xbc, 0xb7, 0xbd, 0x82, 0xbc, 0x3d, 0xbf, 0x64, 0xec, 0xd4, 0xbe,
  0x75, 0xa6, 0x18, 0xbf, 0x81, 0x17, 0x1c, 0x3e, 0xb7, 0xaa, 0x09, 0x3e,
  0xb2, 0xe4, 0x29, 0xbf, 0x73, 0xff, 0x0c, 0xbf, 0x2a, 0x4b, 0xa1, 0x3d,
  0xbc, 0x90, 0x38, 0xbf, 0x28, 0x4c, 0x49, 0xbf, 0x9b, 0x0b, 0x3a, 0xbf,
  0x74, 0xfe, 0x3e, 0xbf, 0x53, 0xc6, 0xe7, 0xbe, 0x2a, 0xd7, 0xf0, 0x3d,
  0x34, 0x77, 0x37, 0xbf, 0xe4, 0x14, 0x06, 0xbf, 0x23, 0x70, 0x38, 0xbe,
  0xf5, 0xd8, 0x46, 0x3e, 0xa8, 0xfb, 0xf7, 0xbc, 0xa6, 0x3d, 0x59, 0xbe,
  0x0d, 0x09, 0xfd, 0xbe, 0x98, 0x2f, 0x94, 0xbd, 0x07, 0xcf, 0x41, 0x3e,
  0x7a, 0x26, 0x83, 0x3d, 0x34, 0x0f, 0x2f, 0x3d, 0x00, 0xcf, 0xa0, 0xbb,
  0xa2, 0x60, 0xdb, 0x3d, 0x09, 0xcc, 0xd9, 0xbe, 0x8b, 0x1a, 0x12, 0x3e,
  0xfd, 0xc0, 0x03, 0xbf, 0xd2, 0xa9, 0xc4, 0xbe, 0xef, 0xd7, 0xd5, 0xbe,
  0x99, 0x32, 0xf9, 0xbd, 0x3a, 0xba, 0x93, 0xbe, 0xe6, 0xb9, 0xc0, 0x3c,
  0xd5, 0x29, 0x5d, 0xbe, 0x08, 0xa5, 0x46, 0xbe, 0x0b, 0x2a, 0x4d, 0xc0,
  0xb1, 0xa3, 0x67, 0xbe, 0x53, 0xf2, 0x18, 0xbf, 0x09, 0x4d, 0x00, 0xbe,
  0x1b, 0x09, 0xcc, 0xbe, 0xc3, 0x3b, 0x01, 0xbe, 0x4f, 0x7c, 0x66, 0xbe,
  0xe8, 0x94, 0x2d, 0xc0, 0xe0, 0x53, 0x2b, 0xc0, 0xb7, 0x88, 0x69, 0xc0,
  0x3d, 0xf8, 0x55, 0xc0, 0x75, 0xd8, 0x50, 0xc0, 0xe6, 0x19, 0xfd, 0x3f,
  0x31, 0xf4, 0x3d, 0xbe, 0xa3, 0xd6, 0x25, 0xbe, 0x32, 0x31, 0x33, 0xc0,
  0x94, 0xd3, 0x17, 0xc0, 0x96, 0x48, 0x53, 0xc0, 0x43, 0x8c, 0x65, 0xc0,
  0x17, 0x2c, 0x50, 0xbe, 0x45, 0xc0, 0xc3, 0xbe, 0xa3, 0x8f, 0x9b, 0xbe,
  0xd6, 0x32, 0x3c, 0xc0, 0xcd, 0x6f, 0x31, 0x3e, 0x16, 0xac, 0x44, 0xbf,
  0xa7, 0xf0, 0x0f, 0xbf, 0x20, 0x1c, 0x45, 0xc0, 0x66, 0xd4, 0x72, 0xbe,
  0x0d, 0x51, 0x54, 0x3e, 0xd0, 0x67, 0x93, 0xbe, 0x59, 0x5c, 0xc7, 0xbd,
  0x17, 0x79, 0xb3, 0xbd, 0xa3, 0x5f, 0x4e, 0xbd, 0x09, 0xe5, 0x88, 0xbe,
  0x8e, 0x51, 0xc6, 0x3e, 0x5a, 0xba, 0xa0, 0xbe, 0x4d, 0x67, 0xbb, 0xbe,
  0x45, 0x2a, 0xcc, 0x3f, 0x05, 0x69, 0x87, 0xbe, 0x48, 0xd3, 0x5f, 0xbe,
  0x80, 0x1b, 0xe1, 0x3e, 0x6d, 0xda, 0xa4, 0xbc, 0x18, 0xe0, 0x1a, 0xbe,
  0xf6, 0x4e, 0x31, 0xc0, 0xeb, 0xd6, 0x4a, 0xc0, 0x2b, 0x28, 0xde, 0x3e,
  0x42, 0xed, 0x37, 0xc0, 0x3b, 0x6b, 0x4e, 0xbe, 0x3d, 0xcb, 0x35, 0xc0,
  0xc2, 0x7e, 0x80, 0x3e, 0xff, 0x51, 0x66, 0xc0, 0xc6, 0xf1, 0x54, 0xc0,
  0x33, 0x3a, 0x3f, 0xc0, 0xc8, 0xbd, 0xc4, 0x3e, 0x87, 0x0a, 0xfb, 0xbd,
  0x07, 0x0a, 0x38, 0xc0, 0xaa, 0xf8, 0x13, 0xbe, 0x87, 0x3a, 0x7f, 0xbd,
  0x1a, 0x1f, 0x90, 0xbd, 0xc3, 0x3e, 0xab, 0x3e, 0xa9, 0xf7, 0x3a, 0xbf,
  0x02, 0x51, 0xd3, 0xbd, 0x68, 0x1e, 0xee, 0xbe, 0xa5, 0x58, 0xdc, 0xbe,
  0x3f, 0xa0, 0x0e, 0xbf, 0x01, 0x92, 0x00, 0xbf, 0x71, 0xdb, 0x3a, 0xbe,
  0xb1, 0xd8, 0x18, 0xbf, 0xb1, 0x52, 0xe5, 0xbe, 0x9a, 0xa5, 0x03, 0xbf,
  0x45, 0x02, 0x0e, 0xbf, 0x06, 0x79, 0xb7, 0xbe, 0xc0, 0xb0, 0x47, 0xbe,
  0xb0, 0xfd, 0x7f, 0xbc, 0x16, 0x4e, 0x02, 0xbf, 0xf2, 0xba, 0x44, 0xbf,
  0xfb, 0x5c, 0x39, 0xbe, 0x94, 0x03, 0x0d, 0xbf, 0x42, 0x2f, 0xf0, 0xbe,
  0x98, 0x36, 0xc5, 0xbe, 0xb9, 0x59, 0xc6, 0xbd, 0x69, 0xca, 0x2d, 0xbf,
  0xbe, 0x50, 0x05, 0xbf, 0x92, 0x43, 0xda, 0xbe, 0xf1, 0x03, 0x23, 0xbf,
  0x92, 0xe4, 0xc7, 0x3d, 0x5d, 0x6a, 0x35, 0xbf, 0x9d, 0xc5, 0x03, 0xbf,
  0xda, 0x28, 0xd2, 0x3d, 0xde, 0x97, 0x84, 0xbd, 0x7f, 0x1d, 0x1d, 0x3e,
  0x96, 0x8d, 0x14, 0xbf, 0x40, 0x7c, 0x2a, 0xbf, 0xb3, 0xf1, 0xc7, 0xbe,
  0x03, 0xa2, 0x36, 0xbf, 0xec, 0x51, 0xea, 0xbe, 0xcd, 0x36, 0x3d, 0xbf,
  0xe8, 0x10, 0x0d, 0xbf, 0x53, 0xaa, 0x2e, 0x3e, 0xcf, 0x51, 0xb5, 0xbe,
  0x79, 0x96, 0xba, 0xbe, 0x12, 0xf0, 0x3c, 0xbe, 0x6e, 0xfd, 0x18, 0xbf,
  0xb1, 0xf5, 0xc2, 0xbe, 0x7b, 0xe7, 0xe3, 0xbd, 0x1e, 0xd8, 0x10, 0xbf,
  0x18, 0xb4, 0x34, 0xbf, 0x73, 0x7f, 0x42, 0xbf, 0xd5, 0x10, 0x3c, 0xbf,
  0x44, 0x00, 0x47, 0xbd, 0x25, 0x2d, 0xc7, 0xbe, 0x8d, 0x7e, 0x3f, 0xbf,
  0x51, 0x03, 0x20, 0xbf, 0x4e, 0xb5, 0xb6, 0x3d, 0xac, 0x75, 0x4d, 0xbd,
  0x97, 0x86, 0xf9, 0xbe, 0x22, 0x2c, 0x0e, 0xbf, 0xa7, 0xaa, 0x58, 0xbe,
  0xb0, 0x9c, 0x3e, 0xbf, 0x67, 0x1f, 0x12, 0xbf, 0x4a, 0xb9, 0x37, 0xbf,
  0x78, 0x64, 0xce, 0xbe, 0xfa, 0xbd, 0x00, 0xbe, 0x59, 0xc7, 0xd4, 0xbd,
  0x6c, 0xa0, 0x3c, 0xbf, 0x16, 0xec, 0x33, 0xbf, 0xf5, 0xa7, 0x0d, 0xbf,
  0xc2, 0x25, 0xf4, 0xbe, 0x93, 0xec, 0xe4, 0xbe, 0x7f, 0xb4, 0x00, 0xbf,
  0x4f, 0x00, 0x1a, 0xbf, 0xe8, 0x63, 0x09, 0xbf, 0xa6, 0x58, 0x12, 0xbf,
  0x20, 0x90, 0x28, 0xbf, 0x10, 0x37, 0xe3, 0xbe, 0x20, 0xda, 0xef, 0xbe,
  0x8b, 0xb1, 0x0e, 0xbf, 0x2c, 0xe8, 0xe6, 0xbe, 0x53, 0xbc, 0x3c, 0xbf,
  0x05, 0x10, 0x1b, 0xbf, 0x14, 0x07, 0xe4, 0xbe, 0x9d, 0xe8, 0x03, 0xbf,
  0xa0, 0x29, 0xe0, 0xbe, 0x9f, 0xf2, 0x11, 0xbf, 0x93, 0x68, 0x07, 0xbf,
  0xaf, 0x42, 0x4e, 0xbf, 0xad, 0x06, 0x15, 0xbf, 0x34, 0x84, 0xe8, 0xbe,
  0x89, 0xa1, 0xdb, 0xbe, 0x74, 0x89, 0x09, 0xbf, 0x46, 0xd2, 0x26, 0xbf,
  0xab, 0x21, 0xc5, 0xbe, 0x4f, 0xf1, 0x4a, 0xbf, 0x54, 0x75, 0x0a, 0xbf,
  0xd0, 0x5c, 0xe1, 0xbe, 0x94, 0x29, 0x12, 0xbf, 0x0c, 0x55, 0xd7, 0xbe,
  0x4b, 0x8e, 0x45, 0xbf, 0x47, 0x39, 0xda, 0xbe, 0x46, 0x77, 0x3f, 0xbf,
  0x70, 0x2d, 0xc9, 0xbe, 0xad, 0xdf, 0xe7, 0xbe, 0xbe, 0x7f, 0xee, 0xbe,
  0xf8, 0x8a, 0x46, 0xbf, 0x70, 0xd0, 0x3f, 0xbf, 0xb4, 0xe5, 0x35, 0xbf,
  0x87, 0x57, 0x44, 0xbf, 0xd9, 0x78, 0x06, 0xbf, 0x8f, 0xe2, 0x1a, 0xbf,
  0x49, 0x6e, 0x15, 0xbf, 0xc3, 0x6b, 0x0c, 0xbf, 0x0e, 0x93, 0x39, 0xbf,
  0x75, 0x27, 0xdb, 0xbe, 0x6d, 0xb9, 0x48, 0xbf, 0x3a, 0x33, 0x2f, 0xbf,
  0xa2, 0x71, 0xc6, 0xbe, 0x58, 0x6d, 0x19, 0xbf, 0x8c, 0xaf, 0x13, 0xbf,
  0xb0, 0x40, 0x16, 0xbf, 0xa7, 0x98, 0x28, 0xbf, 0x7d, 0xff, 0x0c, 0xbf,
  0x43, 0x0b, 0x37, 0xbf, 0xfe, 0xfd, 0x20, 0xbf, 0xf3, 0x3c, 0xce, 0xbe,
  0xf7, 0x77, 0x33, 0xbf, 0x56, 0x2b, 0xd8, 0xbe, 0x4d, 0x34, 0x21, 0xbf,
  0x26, 0x83, 0x48, 0xbf, 0x6a, 0xdd, 0xc6, 0x3d, 0xe3, 0xa7, 0x3a, 0x3e,
  0xfc, 0xc0, 0xeb, 0xbd, 0x2f, 0x8d, 0x24, 0x3e, 0xe6, 0x4f, 0x1f, 0xbf,
  0x50, 0x8f, 0x77, 0xbd, 0xb0, 0xbf, 0xc9, 0xbe, 0x5e, 0xb9, 0xf3, 0xbd,
  0x20, 0x68, 0x72, 0x3c, 0xf0, 0xa5, 0xf7, 0xbc, 0x53, 0xc2, 0xe3, 0xbd,
  0x20, 0x16, 0x19, 0xbf, 0xba, 0xab, 0x01, 0xbf, 0xd6, 0x53, 0x2d, 0xbf,
  0x50, 0xc1, 0xe8, 0xbe, 0x12, 0x06, 0x02, 0xbf, 0x1a, 0x41, 0xe8, 0x3d,
  0x00, 0xe7, 0xf0, 0xbb, 0xfc, 0x1a, 0x60, 0xbd, 0x1a, 0x75, 0x2c, 0xbf,
  0x7f, 0x08, 0xe1, 0xbd, 0xeb, 0x89, 0xd4, 0xbe, 0x05, 0x6e, 0x0a, 0xbf,
  0xd0, 0x60, 0x41, 0xbe, 0x56, 0xbe, 0x57, 0xbe, 0xce, 0x8a, 0xea, 0x3d,
  0x90, 0x50, 0xdf, 0xbe, 0x12, 0x68, 0x4f, 0xbe, 0xb6, 0xcd, 0x20, 0xbf,
  0xf8, 0x4c, 0xd7, 0xbe, 0x20, 0xe6, 0xe4, 0xbe, 0xc2, 0x17, 0xee, 0x3d,
  0xc7, 0x85, 0x3b, 0xbe, 0x7a, 0xa1, 0x9b, 0x3d, 0xc8, 0x9b, 0xe7, 0xbe,
  0x40, 0xd7, 0x00, 0xbf, 0x80, 0x83, 0x67, 0x3c, 0x4b, 0x50, 0x32, 0xbe,
  0xe7, 0xeb, 0x39, 0xbf, 0x51, 0xb1, 0x54, 0xbe, 0xa0, 0xa3, 0x9c, 0x3b,
  0x23, 0xed, 0x58, 0x3e, 0x00, 0x4d, 0xc1, 0xbc, 0x10, 0x00, 0x54, 0x3c,
  0xf8, 0xde, 0x3a, 0xbf, 0xc4, 0x5d, 0x27, 0xbe, 0x9d, 0xa2, 0x1c, 0xbe,
  0xaf, 0x47, 0xcc, 0xbe, 0x05, 0x60, 0x33, 0xbf, 0x0b, 0xa9, 0xf2, 0xbe,
  0x0f, 0x77, 0x18, 0xbf, 0xd2, 0xed, 0xdf, 0xbd, 0x48, 0x22, 0x2d, 0xbf,
  0x63, 0xac, 0x26, 0xbf, 0x40, 0x11, 0x24, 0xbf, 0x33, 0xfb, 0xf3, 0xbe,
  0xa8, 0x18, 0x26, 0xbf, 0xb3, 0x21, 0x35, 0xbf, 0xde, 0xdc, 0x0a, 0xbe,
  0x1f, 0xd8, 0x08, 0xbf, 0x8b, 0x7c, 0x5c, 0xbe, 0xd8, 0x97, 0x10, 0xbe,
  0x40, 0x1e, 0x93, 0xbd, 0x29, 0xe0, 0x0a, 0xbf, 0x66, 0x8b, 0xc1, 0x3c,
  0x38, 0xc2, 0xf1, 0x3e, 0x5e, 0x6d, 0x71, 0x3e, 0x74, 0x2d, 0x23, 0x3e,
  0x2d, 0xb0, 0x27, 0xbf, 0xd9, 0x89, 0xe8, 0xbd, 0xf7, 0xd6, 0x0d, 0xbe,
  0x75, 0x16, 0x3b, 0xbd, 0xe4, 0x8a, 0xd6, 0xbe, 0xa6, 0x59, 0xaf, 0x3d,
  0x4f, 0x81, 0xee, 0xbd, 0x2d, 0xaf, 0xc7, 0x3d, 0x4f, 0x8b, 0xb7, 0x3f,
  0xb8, 0xd6, 0xee, 0xbe, 0xc5, 0xe2, 0xd2, 0xbe, 0x0a, 0x35, 0x1a, 0x3f,
  0x18, 0x99, 0x0d, 0x40, 0xec, 0xb3, 0x6d, 0xbe, 0x9d, 0x57, 0x1a, 0xbd,
  0xc7, 0xab, 0xc2, 0xbe, 0x6a, 0x48, 0x0e, 0x40, 0x9d, 0x29, 0x51, 0xbe,
  0x3c, 0x61, 0x0d, 0xbf, 0x0e, 0x27, 0x6f, 0xbe, 0x66, 0xf9, 0x38, 0xbe,
  0x8d, 0xed, 0x1b, 0x3e, 0x0e, 0x6f, 0x61, 0x3e, 0x5d, 0x92, 0x58, 0xbe,
  0x10, 0x66, 0xa9, 0x3c, 0xac, 0x42, 0x4a, 0xbe, 0x52, 0x33, 0x0c, 0xbf,
  0x96, 0xbd, 0xfa, 0xbc, 0x96, 0x83, 0x93, 0x3d, 0x91, 0xa3, 0x13, 0xbe,
  0xc6, 0x25, 0x7d, 0x3d, 0x6e, 0x49, 0x15, 0xbe, 0xf3, 0x5c, 0xba, 0x3d,
  0x3b, 0x3c, 0xb4, 0x3d, 0x5a, 0x80, 0x0f, 0x3f, 0x96, 0x93, 0x43, 0xbe,
  0x45, 0x19, 0xe0, 0x3d, 0xe6, 0x2d, 0xf5, 0x3f, 0x55, 0x7f, 0xcf, 0x3d,
  0xfb, 0x0a, 0x2c, 0xbe, 0xc0, 0x8c, 0xfd, 0x3e, 0x63, 0x85, 0x13, 0xbe,
  0x0f, 0xb8, 0x7d, 0x3d, 0x59, 0x2b, 0xa0, 0xbe, 0x59, 0xae, 0xfe, 0xbe,
  0xfb, 0x8a, 0x4e, 0x3f, 0xe7, 0xf9, 0xc2, 0x3e, 0x98, 0x2e, 0xea, 0x3c,
  0x71, 0xf6, 0x06, 0xbf, 0x2a, 0x78, 0x6a, 0x3f, 0x18, 0x22, 0xf7, 0xbe,
  0x6a, 0xa8, 0x48, 0xbf, 0x6c, 0x68, 0xe5, 0xbd, 0x55, 0x9c, 0x11, 0x3f,
  0x9f, 0xb1, 0x17, 0x3e, 0x5b, 0x2a, 0xef, 0x3e, 0x9c, 0x6a, 0x3e, 0xbe,
  0xcd, 0x87, 0x54, 0xbe, 0x3e, 0xe8, 0x36, 0x3f, 0x57, 0x23, 0x68, 0x3f,
  0x3a, 0x11, 0x3a, 0xbf, 0x20, 0xaf, 0x16, 0xbf, 0x2f, 0x52, 0x25, 0xbf,
  0x4b, 0xb8, 0xc3, 0xbe, 0x3d, 0xa3, 0xc4, 0xbe, 0xba, 0x24, 0x19, 0xbf,
  0xfd, 0x82, 0x01, 0xbf, 0xd4, 0xd3, 0x07, 0xbf, 0xce, 0x3e, 0xfa, 0xbe,
  0x72, 0xe1, 0xc9, 0xbe, 0xc6, 0x94, 0xe9, 0xbe, 0x16, 0x9f, 0x09, 0xbf,
  0x70, 0xc3, 0x36, 0xbf, 0x61, 0x22, 0x3f, 0xbf, 0xfd, 0x7c, 0x27, 0xbf,
  0xc5, 0x01, 0x43, 0xbf, 0x16, 0x4b, 0x01, 0xbf, 0x16, 0xbb, 0xcc, 0xbe,
  0xce, 0x15, 0x44, 0xbf, 0xad, 0xc4, 0x23, 0xbf, 0x19, 0x2b, 0xf2, 0xbe,
  0x8c, 0xa9, 0xd5, 0xbe, 0x07, 0x6f, 0x08, 0xbf, 0x49, 0xec, 0x0b, 0xbf,
  0x3b, 0x0f, 0x2f, 0xbf, 0xb3, 0x0d, 0xe1, 0xbe, 0xdd, 0x50, 0x27, 0xbf,
  0x88, 0x3d, 0xfd, 0xbe, 0x9e, 0x47, 0x20, 0xbf, 0x79, 0x56, 0x2c, 0xbf,
  0x56, 0x90, 0x0b, 0xbf, 0x31, 0x8b, 0x0e, 0xbf, 0xfc, 0x0f, 0x0d, 0xbf,
  0x0e, 0x75, 0x3e, 0xbf, 0x20, 0x23, 0x03, 0xbf, 0x3b, 0x67, 0x27, 0xbf,
  0x52, 0xfd, 0x4c, 0xbf, 0x65, 0x3b, 0xd3, 0xbe, 0x2f, 0xc4, 0xcc, 0xbe,
  0xe9, 0xad, 0x15, 0xbf, 0x40, 0xf0, 0x37, 0xbf, 0x2a, 0x59, 0xcc, 0xbe,
  0xc5, 0x2e, 0x50, 0xbf, 0x64, 0x52, 0x0a, 0xbf, 0x1e, 0x24, 0x05, 0xbf,
  0x97, 0xfd, 0x0c, 0xbf, 0xb5, 0xbd, 0x12, 0xbf, 0xb9, 0x6d, 0x1d, 0xbf,
  0x36, 0x6d, 0xe4, 0xbe, 0x15, 0x7b, 0x08, 0xbf, 0x9a, 0xfe, 0xe6, 0xbe,
  0x3c, 0x09, 0xf7, 0xbe, 0x66, 0xf4, 0x31, 0xbf, 0x3c, 0x33, 0xd7, 0xbe,
  0x29, 0x2b, 0xcd, 0xbe, 0x06, 0x50, 0xaf, 0xbe, 0x73, 0x64, 0x2b, 0xbf,
  0xf9, 0xe4, 0x1b, 0xbf, 0x35, 0x34, 0x44, 0xbf, 0xbb, 0xf2, 0x3e, 0xbf,
  0x46, 0x2f, 0x4b, 0xbf, 0x08, 0x2a, 0x35, 0xbf, 0x88, 0x49, 0x15, 0xbf,
  0xb2, 0x5a, 0x25, 0xbf, 0x64, 0xae, 0x35, 0x3d, 0xd2, 0xad, 0x8d, 0x3d,
  0xc0, 0xea, 0xa6, 0xbd, 0x01, 0x83, 0x19, 0x3e, 0xc8, 0xb7, 0xe0, 0xbe,
  0xd9, 0x1e, 0x47, 0x3e, 0x5e, 0x31, 0xc5, 0xbe, 0xd9, 0x18, 0x02, 0x3e,
  0x00, 0x7a, 0x8e, 0x3b, 0x32, 0x26, 0x32, 0xbe, 0xfe, 0x54, 0x9e, 0x3d,
  0xd9, 0x82, 0xee, 0xbe, 0x49, 0xb4, 0x2b, 0xbf, 0x83, 0xc0, 0x3a, 0xbf,
  0x3d, 0xa2, 0xde, 0xbe, 0x8a, 0x1a, 0x51, 0xbf, 0xff, 0x5c, 0x4e, 0xbe,
  0x68, 0x6e, 0x44, 0xbd, 0xb0, 0x1f, 0x4e, 0xbd, 0x27, 0x15, 0xc9, 0xbe,
  0x0e, 0xfc, 0x9b, 0xbd, 0x20, 0x33, 0x14, 0xbf, 0x5b, 0x29, 0x01, 0xbf,
  0x20, 0x39, 0xf7, 0xbb, 0x01, 0xb7, 0x30, 0x3e, 0x92, 0x64, 0x8f, 0xbd,
  0xa7, 0x54, 0x27, 0xbf, 0x93, 0x7a, 0x21, 0x3e, 0x9b, 0xfa, 0x34, 0xbf,
  0x45, 0x5d, 0x0b, 0xbf, 0x39, 0x81, 0x12, 0xbf, 0x04, 0x5e, 0x3d, 0xbe,
  0x1a, 0x2e, 0x9b, 0x3d, 0xc5, 0x87, 0x56, 0x3e, 0xf2, 0x4d, 0x45, 0xbf,
  0xfb, 0x1f, 0x4e, 0xbf, 0x2c, 0xa2, 0x95, 0xbd, 0xe2, 0x10, 0xde, 0x3d,
  0x48, 0x0e, 0xf1, 0xbe, 0x88, 0x69, 0x38, 0xbd, 0xe8, 0xc3, 0x26, 0xbd,
  0x0a, 0x61, 0x40, 0xbe, 0x78, 0x45, 0x16, 0xbe, 0x2f, 0xd5, 0xea, 0xbd,
  0x90, 0x11, 0xdd, 0xbe, 0x80, 0xaf, 0x15, 0xbe, 0x24, 0xe5, 0xe8, 0xbd,
  0x11, 0xd0, 0xdb, 0xbe, 0xf3, 0xc6, 0x1b, 0xbf, 0x13, 0xc9, 0xce, 0xbe,
  0xb0, 0xe5, 0x4b, 0xbf, 0xd2, 0x84, 0xd7, 0x3d, 0xc9, 0x69, 0x4b, 0xbf,
  0x2b, 0xe4, 0xee, 0xbe, 0x34, 0x3b, 0x2a, 0xbf, 0x9f, 0xbe, 0x18, 0xbf,
  0x41, 0xb1, 0x28, 0xbf, 0x5e, 0x31, 0xd9, 0xbe, 0x60, 0xf7, 0x3e, 0xbe,
  0xc5, 0x38, 0x16, 0xbf, 0x80, 0xb6, 0x01, 0xbd, 0xd4, 0x03, 0x15, 0xbd,
  0xe7, 0xa3, 0x1d, 0x3e, 0x92, 0xfe, 0xfe, 0xbe, 0x38, 0x7f, 0x5b, 0xbe,
  0x29, 0xda, 0x02, 0x3f, 0x03, 0xa9, 0x3d, 0xbd, 0x67, 0x0d, 0x91, 0xbd,
  0x48, 0xfa, 0x45, 0x40, 0x93, 0xfb, 0x8e, 0x3c, 0x7d, 0x5b, 0x38, 0x3f,
  0x39, 0x11, 0x39, 0xbd, 0xae, 0x45, 0x2e, 0xbf, 0x1e, 0x7f, 0xd2, 0xbc,
  0x2a, 0x95, 0xd8, 0x3d, 0xc3, 0x19, 0x89, 0x40, 0xc7, 0x87, 0x34, 0x40,
  0x74, 0x43, 0x42, 0x40, 0x46, 0xf4, 0x44, 0x40, 0xfa, 0x37, 0x8b, 0x40,
  0x20, 0x74, 0x0d, 0x40, 0xa2, 0xc1, 0x5f, 0xbe, 0x8e, 0x88, 0xe3, 0xbd,
  0x7e, 0x95, 0x6c, 0x40, 0x94, 0x8b, 0x27, 0x40, 0x1a, 0xbe, 0x60, 0x40,
  0x3e, 0x0e, 0x39, 0x40, 0x2c, 0xce, 0xbe, 0x3d, 0xc3, 0x14, 0x15, 0xbe,
  0xe5, 0xc2, 0x01, 0x3f, 0x9f, 0xe2, 0x9d, 0x40, 0x22, 0x3d, 0x3a, 0xbe,
  0x72, 0x86, 0x4a, 0x3f, 0x2a, 0x97, 0xaf, 0x3e, 0x6b, 0x7d, 0x65, 0x3f,
  0x4d, 0xee, 0x8c, 0xbd, 0x60, 0x09, 0xbf, 0xbd, 0x33, 0xac, 0x67, 0x3d,
  0xa1, 0xd9, 0x74, 0xbd, 0x66, 0x3f, 0xd4, 0x3d, 0xaf, 0x41, 0xb1, 0xbd,
  0x12, 0x74, 0xb5, 0x3d, 0xeb, 0xab, 0x1d, 0x3f, 0x95, 0xbf, 0x90, 0xbd,
  0xe0, 0xac, 0x6f, 0x3e, 0xcc, 0x40, 0x55, 0x40, 0x41, 0xb8, 0x5c, 0x3e,
  0x31, 0x92, 0xd0, 0x3a, 0x96, 0xe2, 0x23, 0x3f, 0xc7, 0x35, 0xf4, 0xbd,
  0xbc, 0xc7, 0x5b, 0xbe, 0x1b, 0x41, 0x62, 0x40, 0x45, 0xb5, 0x60, 0x40,
  0x7a, 0x0f, 0xd4, 0x3e, 0x14, 0x40, 0xa3, 0x40, 0x6c, 0x9f, 0x36, 0xbe,
  0x7e, 0xaa, 0x68, 0x40, 0x10, 0x5e, 0xa7, 0x3f, 0x91, 0xc1, 0x91, 0x3f,
  0x3c, 0xad, 0x27, 0x40, 0x83, 0xf9, 0x8e, 0x40, 0xac, 0x00, 0x03, 0x3f,
  0xfb, 0x5c, 0x03, 0x3e, 0x20, 0x3f, 0xa6, 0x40, 0x05, 0x39, 0x2a, 0xbe,
  0x24, 0xbb, 0x36, 0x3e, 0x34, 0xfd, 0x9d, 0x3f, 0x2a, 0x23, 0x34, 0x40,
  0xe5, 0xf1, 0x48, 0xbe, 0x33, 0x38, 0x50, 0xbe, 0xea, 0x79, 0x03, 0xbe,
  0xaf, 0xa3, 0x3e, 0x3e, 0x0c, 0xe9, 0x2c, 0x3d, 0x29, 0x2e, 0x2c, 0x3e,
  0x40, 0xec, 0x4f, 0xbd, 0x6c, 0x0d, 0x44, 0x3d, 0x60, 0x5a, 0x46, 0xbd,
  0xba, 0x7b, 0xb1, 0x3d, 0xd8, 0x54, 0x3a, 0xbd, 0x80, 0x36, 0xbf, 0xbf,
  0xb8, 0x35, 0xc5, 0x3c, 0xec, 0x2b, 0x46, 0x3d, 0x35, 0x69, 0x23, 0xbe,
  0x0c, 0xf5, 0xac, 0xbf, 0xde, 0x9e, 0x41, 0xbe, 0xd8, 0x36, 0x6d, 0xbd,
  0x67, 0xfc, 0xcc, 0xbd, 0x53, 0xd9, 0xab, 0xbf, 0x7a, 0x39, 0x90, 0x3d,
  0x70, 0x5d, 0x97, 0xbd, 0xf0, 0xfe, 0x71, 0xbc, 0x60, 0xce, 0xe1, 0x3b,
  0x38, 0xc0, 0x28, 0xbd, 0x73, 0x93, 0x0b, 0x3e, 0x3c, 0xb6, 0x69, 0xbd,
  0xb2, 0x2f, 0xbb, 0x3d, 0xda, 0xfe, 0x86, 0xbd, 0x6d, 0x04, 0x2b, 0xbe,
  0xd9, 0x58, 0x09, 0xbe, 0x64, 0x84, 0x44, 0xbe, 0xbe, 0xa3, 0x81, 0x3d,
  0x69, 0x3e, 0x1c, 0x3e, 0xd3, 0xcb, 0x1d, 0x3e, 0xbf, 0x27, 0x05, 0x3e,
  0xf8, 0xba, 0x80, 0xbc, 0xe4, 0x4e, 0x3d, 0x3d, 0x0e, 0x40, 0x3f, 0xbe,
  0x8d, 0x6b, 0x45, 0xbe, 0xd9, 0xf8, 0x23, 0x3e, 0xe8, 0x88, 0xea, 0x3c,
  0xa0, 0xf6, 0x31, 0xbd, 0x08, 0x1a, 0x41, 0xbd, 0xb0, 0xb1, 0xde, 0xbc,
  0xc6, 0x40, 0xe6, 0x3d, 0x78, 0x2f, 0x7b, 0xbd, 0x6f, 0x74, 0x27, 0x3e,
  0x65, 0xb0, 0x47, 0xbe, 0x0d, 0x8c, 0x2b, 0x3e, 0x76, 0xef, 0xa1, 0xbf,
  0x5a, 0x8b, 0xa9, 0xbd, 0x1a, 0x40, 0x90, 0x3d, 0x49, 0x65, 0xdc, 0xbd,
  0x5d, 0x22, 0x0d, 0xbe, 0x5c, 0x94, 0xba, 0xbd, 0x62, 0x90, 0x5a, 0xbe,
  0x75, 0xc8, 0x45, 0xbe, 0x6c, 0x92, 0x5f, 0x3d, 0x5c, 0x70, 0x1b, 0x3d,
  0x69, 0x4b, 0xdc, 0xbd, 0xbc, 0x17, 0x01, 0xbe, 0xf4, 0x09, 0x22, 0xbe,
  0xc0, 0x6b, 0xb5, 0xbd, 0xd5, 0x85, 0xb3, 0xbb, 0xba, 0x9e, 0x9f, 0x3e,
  0xf4, 0xf3, 0x99, 0x3d, 0x29, 0x14, 0xb6, 0xbe, 0xed, 0x81, 0x93, 0xbe,
  0x29, 0xae, 0x52, 0xbe, 0xfd, 0x5d, 0xa4, 0xbe, 0x60, 0x6d, 0x86, 0xbc,
  0x13, 0x4e, 0xd0, 0x3e, 0x80, 0xd5, 0xa6, 0xbd, 0x4f, 0x4f, 0x2e, 0x3c,
  0x46, 0x3d, 0x8f, 0xbd, 0xc2, 0x74, 0x9c, 0x3e, 0xec, 0xb6, 0xe5, 0xbe,
  0x4b, 0xd9, 0xbb, 0xbe, 0x79, 0xeb, 0x44, 0xbe, 0xbb, 0xd2, 0x08, 0x40,
  0x23, 0x32, 0x22, 0x3d, 0x5e, 0x17, 0x2a, 0x3e, 0x73, 0xcf, 0x37, 0xbe,
  0x14, 0x3a, 0x8c, 0x3f, 0x16, 0x52, 0x0e, 0x3c, 0xb7, 0x0f, 0x82, 0x3d,
  0x85, 0x36, 0xa6, 0x3d, 0x64, 0xff, 0x4b, 0x3c, 0xcf, 0xeb, 0x94, 0x3e,
  0x04, 0xfc, 0x27, 0x3e, 0xf5, 0x64, 0x50, 0x3f, 0x73, 0x12, 0x12, 0xbf,
  0xbd, 0x46, 0x3e, 0xbf, 0x69, 0xbf, 0xb0, 0xbe, 0xa7, 0xbb, 0xa3, 0xbc,
  0x7f, 0x3a, 0x7f, 0x3f, 0x42, 0xbb, 0xcc, 0xbd, 0xd2, 0xac, 0x96, 0xbe,
  0xab, 0x65, 0x6e, 0xbe, 0x2a, 0x1b, 0x22, 0x3e, 0x80, 0xd6, 0x03, 0xbd,
  0x88, 0xf7, 0xc2, 0xbe, 0x99, 0xb8, 0x3f, 0xbd, 0xe0, 0x4e, 0x88, 0xbd,
  0x6c, 0x01, 0x58, 0x40, 0x75, 0x48, 0x3c, 0x3d, 0xc3, 0x2d, 0x99, 0x3c,
  0xfe, 0x10, 0x08, 0xbf, 0x66, 0x1c, 0x1a, 0x3c, 0x34, 0x16, 0x2f, 0xbd,
  0x7a, 0x42, 0x95, 0xbd, 0x76, 0xfa, 0x69, 0xbc, 0xae, 0xdc, 0x1c, 0xbf,
  0xa1, 0x06, 0xda, 0xbd, 0xe5, 0x28, 0x32, 0x3f, 0xf9, 0xf1, 0x84, 0xbe,
  0xb0, 0xde, 0xcb, 0xbd, 0x8a, 0x46, 0x10, 0xbf, 0xe8, 0x4c, 0xc4, 0x3c,
  0xd1, 0xae, 0xf2, 0x39, 0xfd, 0xda, 0xcb, 0xbe, 0x49, 0xb0, 0x7b, 0x3f,
  0xcf, 0xeb, 0xae, 0xbd, 0x5c, 0xba, 0x13, 0x3e, 0x5b, 0x33, 0x65, 0xbd,
  0x24, 0x74, 0xda, 0x3c, 0x36, 0x80, 0x66, 0xbe, 0xfc, 0xc8, 0x1b, 0xbf,
  0x3d, 0x21, 0x8c, 0xbf, 0xce, 0xcf, 0x81, 0xbf, 0xba, 0x65, 0x74, 0xbf,
  0xc3, 0xa4, 0x4a, 0xbf, 0x9a, 0x0a, 0x35, 0xbf, 0x16, 0x7a, 0x4e, 0xbf,
  0xd2, 0xd2, 0x80, 0xbf, 0xa8, 0xb1, 0xca, 0x3c, 0x11, 0xf2, 0x2e, 0xbf,
  0x7b, 0x82, 0x55, 0xbf, 0xa0, 0x37, 0x5b, 0xbf, 0x57, 0xc1, 0x8a, 0xbf,
  0x3b, 0xa1, 0x64, 0xbf, 0x6b, 0x66, 0x7e, 0xbf, 0xed, 0x84, 0x4c, 0xbf,
  0x0e, 0xc2, 0x7e, 0xbf, 0x4e, 0x97, 0x84, 0xbf, 0x34, 0x1b, 0x24, 0xbf,
  0xba, 0xd9, 0x37, 0xbf, 0x42, 0x23, 0x7a, 0xbf, 0xf1, 0xb2, 0x86, 0xbf,
  0x85, 0xd3, 0x71, 0xbf, 0x3d, 0x25, 0x3b, 0xbf, 0x57, 0xf8, 0x7c, 0xbf,
  0xf4, 0xfa, 0x87, 0xbf, 0x9a, 0xea, 0x89, 0xbf, 0x41, 0xa3, 0x31, 0x3e,
  0x8c, 0xa3, 0x86, 0xbf, 0xbb, 0xb9, 0x48, 0xbf, 0xf4, 0xeb, 0x7d, 0xbf,
  0x42, 0xe6, 0x74, 0xbf, 0x3c, 0x6f, 0x0a, 0x3d, 0x65, 0x07, 0x21, 0xbf,
  0x65, 0xc8, 0x86, 0xbf, 0x46, 0x54, 0x8b, 0xbf, 0x4a, 0x1b, 0x6e, 0xbf,
  0x7e, 0xfd, 0x74, 0xbf, 0x26, 0x4c, 0xae, 0x3d, 0x4b, 0x66, 0x20, 0xbf,
  0x43, 0x02, 0x85, 0xbf, 0xbe, 0x33, 0x86, 0xbd, 0x62, 0x46, 0x52, 0xbf,
  0x95, 0x66, 0x7f, 0xbf, 0xe0, 0xfd, 0x9a, 0x3b, 0x69, 0x05, 0x69, 0xbf,
  0x80, 0x6b, 0x8f, 0xbf, 0xdd, 0xcd, 0x55, 0xbf, 0xe6, 0x4b, 0x79, 0xbf,
  0x04, 0x2d, 0x41, 0x3d, 0x83, 0xdf, 0x4f, 0xbf, 0x59, 0xe0, 0x34, 0xbe,
  0x14, 0x21, 0x83, 0xbf, 0x9d, 0x5f, 0x40, 0xbf, 0xca, 0x07, 0x8a, 0xbf,
  0xda, 0xf1, 0x3b, 0xbf, 0x15, 0xd2, 0x8d, 0xbf, 0x50, 0x8d, 0x14, 0xbc,
  0x7e, 0x12, 0xc5, 0x3d, 0x4e, 0xc0, 0x6e, 0xbf, 0x87, 0x8d, 0x37, 0xbf,
  0x83, 0xf8, 0x7a, 0xbf, 0x96, 0x3c, 0x81, 0xbf, 0x36, 0x03, 0x62, 0xbf,
  0xe5, 0x06, 0x01, 0x3e, 0x3e, 0x43, 0xae, 0xbd, 0xdc, 0x3a, 0xb0, 0xbd,
  0xe6, 0xa1, 0xd9, 0x3d, 0x77, 0x4a, 0xfc, 0xbe, 0x8d, 0x47, 0x41, 0x3e,
  0xf3, 0x61, 0x0e, 0xbf, 0x06, 0xdf, 0x99, 0x3d, 0xc0, 0x97, 0x31, 0x3b,
  0x54, 0xd9, 0xe3, 0xbd, 0xa9, 0x15, 0xd6, 0xbd, 0xe3, 0xdd, 0x1b, 0xbf,
  0xfe, 0xae, 0xc7, 0xbe, 0xcc, 0xa7, 0xef, 0xbe, 0x9a, 0x31, 0x4e, 0xbf,
  0xfb, 0xd3, 0x1e, 0xbf, 0xa3, 0xd4, 0xe7, 0xbd, 0xc0, 0x99, 0x20, 0xbd,
  0x4b, 0x1b, 0x42, 0xbe, 0x84, 0x7e, 0x09, 0xbf, 0x34, 0xff, 0x28, 0x3d,
  0x51, 0x64, 0x44, 0xbf, 0x5c, 0xa5, 0x46, 0xbf, 0x54, 0xe0, 0x3b, 0xbe,
  0xac, 0x7b, 0x07, 0x3d, 0x00, 0xb8, 0x39, 0xbb, 0x7a, 0x87, 0x01, 0xbf,
  0x8b, 0x34, 0x3f, 0x3e, 0x2f, 0x5c, 0x46, 0xbf, 0xd6, 0x46, 0x4d, 0xbf,
  0x78, 0xd5, 0x04, 0xbf, 0x44, 0xa6, 0x02, 0xbe, 0xdd, 0x99, 0x51, 0xbe,
  0xea, 0xd8, 0x8f, 0xbd, 0x80, 0xa1, 0x45, 0xbf, 0xc2, 0x4c, 0xed, 0xbe,
  0x55, 0xba, 0x07, 0x3e, 0x72, 0x9f, 0x94, 0xbd, 0x84, 0xc7, 0xd8, 0xbe,
  0x66, 0x8a, 0xde, 0xbd, 0xdb, 0x0d, 0x44, 0x3e, 0xd2, 0x18, 0x9c, 0x3d,
  0xe0, 0xb6, 0xce, 0xbb, 0x5c, 0xaa, 0x37, 0xbd, 0x4b, 0x45, 0xcc, 0xbe,
  0x35, 0x46, 0x43, 0x3e, 0x9a, 0x98, 0x89, 0x3d, 0x3d, 0xff, 0x0d, 0xbf,
  0xde, 0xc2, 0xd0, 0xbe, 0x5f, 0xaa, 0xd5, 0xbe, 0x69, 0x08, 0xc5, 0xbe,
  0x57, 0xaf, 0xee, 0xbd, 0x7f, 0x1a, 0x1b, 0xbf, 0x07, 0x72, 0xf4, 0xbe,
  0x96, 0x5b, 0x23, 0xbf, 0x44, 0xa8, 0xb2, 0xbe, 0xe6, 0xb1, 0xe9, 0xbe,
  0x5a, 0x83, 0x41, 0xbf, 0x87, 0x28, 0xc2, 0xbd, 0x4f, 0x88, 0x3c, 0xbf,
  0x56, 0xf7, 0xd0, 0x3d, 0x99, 0xf9, 0x00, 0xbe, 0xc0, 0xd4, 0x4f, 0xbd,
  0xce, 0xe1, 0x28, 0xbf, 0x26, 0x0a, 0xbd, 0x3d, 0xa3, 0x31, 0x4f, 0x3e,
  0xc0, 0x85, 0x94, 0x3c, 0x27, 0x35, 0x2d, 0x3e, 0xdb, 0x47, 0x3e, 0xbf,
  0x6f, 0x81, 0x58, 0xbe, 0x9a, 0x15, 0xf6, 0xbe, 0xae, 0x04, 0x86, 0xbd,
  0x1c, 0x95, 0x8a, 0xbd, 0x80, 0xd2, 0x0c, 0xbe, 0x4a, 0x97, 0x92, 0xbd,
  0xd9, 0x62, 0x2b, 0xbf, 0x54, 0xb1, 0x25, 0xbf, 0x81, 0x5f, 0x0a, 0xbf,
  0x4a, 0xd5, 0x33, 0xbf, 0x07, 0x22, 0xff, 0xbe, 0x88, 0xfe, 0x9e, 0x3c,
  0x2b, 0x13, 0x00, 0x3e, 0x1b, 0x19, 0x05, 0xbe, 0x12, 0xae, 0x14, 0xbf,
  0x24, 0x1d, 0x09, 0xbd, 0xd6, 0x03, 0x1c, 0xbf, 0x01, 0x29, 0x08, 0xbf,
  0x7a, 0x2b, 0xa8, 0xbd, 0x6e, 0x77, 0xea, 0x3d, 0x08, 0xfc, 0xff, 0xbc,
  0xdb, 0x55, 0xd0, 0xbe, 0xef, 0xfe, 0x1b, 0x3e, 0x93, 0xc9, 0xd2, 0xbe,
  0x38, 0x2f, 0x1f, 0xbf, 0xe6, 0x25, 0x38, 0xbf, 0x80, 0xc9, 0xbb, 0x3b,
  0x40, 0x26, 0x92, 0xbc, 0x9e, 0x06, 0x40, 0xbe, 0x99, 0xec, 0x37, 0xbf,
  0x01, 0xfa, 0xd9, 0xbe, 0x8a, 0xa9, 0x8e, 0x3d, 0x2a, 0x80, 0x36, 0xbe,
  0xe0, 0x95, 0x39, 0xbf, 0x93, 0x4e, 0x51, 0xbe, 0x8e, 0xb0, 0xcb, 0x3d,
  0x09, 0x2e, 0x4a, 0xbe, 0x30, 0x9d, 0xdd, 0xbd, 0x49, 0x0e, 0x5b, 0x3e,
  0xfe, 0xb2, 0x36, 0xbf, 0xbc, 0xa7, 0x08, 0xbe, 0x24, 0xf6, 0x2b, 0xbe,
  0x7d, 0xdb, 0x4f, 0xbf, 0xb5, 0x2f, 0xc8, 0xbe, 0x2e, 0x75, 0xc5, 0xbe,
  0x1b, 0x10, 0xe4, 0xbe, 0xe4, 0xe0, 0x3e, 0x3d, 0x2e, 0xd8, 0xf9, 0xbe,
  0xd1, 0x26, 0x35, 0xbf, 0x84, 0xd9, 0x31, 0xbf, 0xf7, 0x08, 0x28, 0xbf,
  0x50, 0x65, 0x20, 0xbf, 0x60, 0x23, 0x46, 0xbf, 0x10, 0xe1, 0x45, 0x3c,
  0xd1, 0x09, 0x0c, 0xbf, 0x10, 0xe8, 0x62, 0xbd, 0x40, 0xb7, 0x43, 0xbd,
  0xf0, 0xb5, 0x32, 0xbc, 0x4b, 0x37, 0xd6, 0xbe, 0xa6, 0x73, 0x56, 0xbe,
  0x34, 0x81, 0x82, 0xbd, 0x8c, 0xbb, 0x30, 0xbd, 0x1e, 0xf6, 0xca, 0x3d,
  0x9f, 0x0b, 0x3b, 0xbf, 0x59, 0x49, 0xf7, 0xbd, 0xfa, 0x3e, 0x26, 0xbf,
  0x85, 0xb6, 0x53, 0xbe, 0x7a, 0x43, 0x27, 0xbe, 0x58, 0x36, 0x96, 0xbc,
  0x21, 0x25, 0x1b, 0x3e, 0x41, 0xca, 0x08, 0xbf, 0xd1, 0x90, 0xcb, 0xbe,
  0x6e, 0x43, 0x26, 0xbf, 0x44, 0x0c, 0x42, 0xbf, 0x0b, 0xda, 0x00, 0xbf,
  0x79, 0x42, 0x00, 0x3e, 0x64, 0x6e, 0xb3, 0xbd, 0x83, 0xa7, 0x48, 0xbe,
  0xd4, 0x4c, 0x3b, 0xbf, 0xcf, 0x2c, 0x48, 0x3e, 0xe6, 0xe3, 0x3d, 0xbf,
  0x23, 0x0c, 0xfb, 0xbe, 0x00, 0xbe, 0xe5, 0x3b, 0xad, 0xf5, 0x15, 0x3e,
  0x83, 0x18, 0x37, 0x3e, 0xec, 0x84, 0xfb, 0xbe, 0x54, 0x31, 0x51, 0xbd,
  0xfb, 0x34, 0x25, 0xbf, 0xaf, 0x0c, 0x17, 0xbf, 0x52, 0xf2, 0x1b, 0xbf,
  0x1e, 0x4a, 0xc1, 0x3d, 0xd4, 0x73, 0x1b, 0x3d, 0x0a, 0x6f, 0x42, 0xbe,
  0xa7, 0xcd, 0xfe, 0xbe, 0x44, 0xd9, 0x23, 0xbf, 0xed, 0x5c, 0x3c, 0x3e,
  0x6c, 0x1e, 0x64, 0xbd, 0x11, 0x2f, 0x26, 0xbf, 0x50, 0x19, 0xf8, 0x3c,
  0x5e, 0x3c, 0x9a, 0x3d, 0xf6, 0xad, 0x5c, 0xbe, 0xe6, 0x51, 0x2c, 0xbe,
  0xf4, 0x92, 0xd7, 0xbd, 0x9d, 0xd2, 0xd0, 0xbe, 0xf4, 0xb6, 0xa9, 0xbd,
  0x84, 0x4d, 0x2b, 0x3d, 0x8e, 0x8a, 0x47, 0xbf, 0x30, 0x2f, 0xcf, 0xbe,
  0x7d, 0x84, 0x21, 0xbf, 0x7e, 0xf4, 0x4f, 0xbf, 0x12, 0x23, 0xc1, 0x3d,
  0x7f, 0x70, 0xcc, 0xbe, 0x64, 0xdc, 0x15, 0xbf, 0xb7, 0x82, 0xff, 0xbe,
  0xca, 0x16, 0x15, 0xbf, 0xa0, 0x15, 0x0e, 0xbf, 0x35, 0xac, 0xe0, 0xbe,
  0x9e, 0xe2, 0xf9, 0xbd, 0x1c, 0x88, 0x36, 0xbf, 0xba, 0x54, 0xce, 0x3d,
  0xa0, 0xa2, 0x80, 0xbc, 0x4f, 0x93, 0x3b, 0x3e, 0x18, 0x2e, 0x20, 0xbf,
  0xfa, 0x35, 0x4c, 0xbe, 0xe4, 0x86, 0x25, 0xbe, 0x28, 0x89, 0x9c, 0xbd,
  0x98, 0x83, 0x11, 0xbe, 0x13, 0x59, 0xd6, 0xbd, 0xde, 0x56, 0x1f, 0xbe,
  0x77, 0xac, 0x29, 0xbe, 0x88, 0x46, 0x39, 0xbd, 0x96, 0xe8, 0xb3, 0x3d,
  0x42, 0x76, 0xc1, 0x3d, 0x6b, 0x5c, 0x4a, 0x3e, 0xe3, 0xca, 0x0c, 0xbf,
  0x13, 0xc4, 0x35, 0x3e, 0x09, 0xf2, 0x0b, 0xbe, 0x35, 0x0a, 0x3e, 0xbe,
  0x8c, 0x67, 0xc4, 0xbe, 0xbf, 0xd2, 0x24, 0xbe, 0x8c, 0x49, 0xb1, 0xbd,
  0x96, 0x00, 0x1a, 0xbe, 0xbd, 0x49, 0x08, 0xbf, 0x46, 0x47, 0x26, 0xbe,
  0xcc, 0x13, 0x18, 0x3d, 0x68, 0x09, 0xb5, 0xbd, 0xa0, 0x9b, 0x19, 0xbc,
  0xbf, 0xca, 0x14, 0x3e, 0xfa, 0xc1, 0xa8, 0x3d, 0xbc, 0xd1, 0x4e, 0xbe,
  0x61, 0xd7, 0x1a, 0x3e, 0xeb, 0x55, 0x3e, 0x3e, 0x00, 0x50, 0x17, 0x38,
  0x43, 0x3b, 0x55, 0x3e, 0xa2, 0xcc, 0xa2, 0x3d, 0x1c, 0x11, 0xea, 0xbd,
  0x84, 0xf3, 0x89, 0xbd, 0x30, 0x80, 0x1c, 0xbe, 0xe2, 0x66, 0x81, 0x3d,
  0xac, 0x02, 0x25, 0x3d, 0xa9, 0x39, 0xd5, 0xbd, 0x98, 0x95, 0xbe, 0xbc,
  0x11, 0x0e, 0xff, 0xbd, 0x84, 0x0b, 0x14, 0xbe, 0xab, 0xe7, 0x49, 0x3e,
  0x94, 0x1d, 0x5c, 0x3d, 0xe2, 0x57, 0x2d, 0xbe, 0x30, 0x42, 0x61, 0xbd,
  0x43, 0x71, 0x38, 0xbe, 0x99, 0xd8, 0x59, 0xbe, 0xdc, 0x05, 0x16, 0x3d,
  0x06, 0x32, 0x20, 0xbe, 0xd0, 0x16, 0xc2, 0xbc, 0x69, 0x6b, 0x9d, 0xbe,
  0x88, 0xe7, 0xc9, 0xbc, 0xe9, 0x63, 0x39, 0x3e, 0x5c, 0x96, 0x1e, 0x3d,
  0x3f, 0x6b, 0x03, 0xbe, 0x1b, 0x31, 0x54, 0xbe, 0xf2, 0xbc, 0x4d, 0xbe,
  0x1a, 0xbb, 0x8e, 0x3d, 0x60, 0x75, 0xb5, 0x3c, 0x60, 0x85, 0x90, 0x3c,
  0x1f, 0xdb, 0x31, 0xbe, 0x38, 0x38, 0xb5, 0x3c, 0xa3, 0xca, 0x2d, 0x3e,
  0x54, 0x35, 0x73, 0x3d, 0x9c, 0xe9, 0x10, 0xbd, 0xef, 0x9e, 0x53, 0x3e,
  0xa2, 0x5c, 0xe1, 0x3d, 0x73, 0x5c, 0x12, 0x3e, 0x3a, 0x44, 0x11, 0xbf,
  0x91, 0xfe, 0x4c, 0xbe, 0x2d, 0x93, 0x40, 0xbf, 0xb0, 0xd2, 0xee, 0xbc,
  0x6d, 0xb9, 0x38, 0x3e, 0xa8, 0xe6, 0xde, 0xbd, 0xf5, 0xc9, 0x41, 0x3e,
  0x98, 0xc4, 0x40, 0xbf, 0x2d, 0x66, 0xcc, 0xbe, 0x66, 0x00, 0xdd, 0xbe,
  0xee, 0x0c, 0x33, 0xbf, 0xc6, 0xa9, 0x3f, 0xbf, 0xa8, 0xa3, 0x09, 0xbd,
  0xad, 0xed, 0x15, 0x3e, 0x8e, 0xb3, 0x0a, 0xbe, 0xed, 0xe7, 0xee, 0xbe,
  0x43, 0xea, 0xfe, 0xbd, 0x60, 0xa0, 0xc7, 0xbe, 0x11, 0xcc, 0x20, 0xbf,
  0x87, 0xbe, 0x02, 0xbe, 0x5e, 0x4e, 0x10, 0xbe, 0xe5, 0xbe, 0x17, 0x3e,
  0xc5, 0x51, 0x0c, 0xbf, 0x93, 0x32, 0x49, 0x3e, 0x2c, 0x82, 0xca, 0xbe,
  0xfc, 0x7d, 0x13, 0xbf, 0x3a, 0xdc, 0x10, 0xbf, 0x30, 0x02, 0x44, 0x3c,
  0xb5, 0x59, 0x58, 0xbe, 0x40, 0x1c, 0xfa, 0x3b, 0x7a, 0x7a, 0x42, 0xbf,
  0xfa, 0x31, 0x2a, 0xbf, 0xe0, 0xdc, 0xf6, 0x3b, 0xa4, 0xe7, 0xd3, 0xbd,
  0xa3, 0x97, 0xf0, 0xbe, 0xa7, 0x47, 0x17, 0x3e, 0x90, 0xaf, 0xd5, 0x3c,
  0xf0, 0xea, 0xca, 0xbd, 0x34, 0x63, 0x52, 0xbe, 0x30, 0x4d, 0x15, 0xbc,
  0x3a, 0x33, 0x21, 0xbf, 0x2e, 0xc0, 0xde, 0x3d, 0x70, 0x60, 0x24, 0xbd,
  0x80, 0x40, 0xeb, 0xbe, 0x96, 0x84, 0xff, 0xbe, 0x36, 0x73, 0x4f, 0xbf,
  0xe5, 0xca, 0x03, 0xbf, 0xbe, 0x44, 0x92, 0xbd, 0x1f, 0x43, 0x41, 0xbf,
  0xb8, 0x76, 0x22, 0xbf, 0x43, 0x11, 0xc9, 0xbe, 0x74, 0x82, 0x42, 0xbf,
  0x26, 0xd6, 0x02, 0xbf, 0xce, 0x3b, 0xd7, 0xbe, 0xf4, 0x72, 0x41, 0xbd,
  0x58, 0x56, 0x0c, 0xbf, 0x35, 0xa2, 0x2e, 0xbe, 0xd4, 0x1f, 0xe7, 0xbd,
  0x1b, 0x70, 0x41, 0x3e, 0x09, 0xf2, 0x12, 0xbf, 0xfb, 0x62, 0x08, 0xbf,
  0xde, 0xf4, 0x38, 0xbf, 0xff, 0x21, 0x10, 0xbf, 0xcc, 0x71, 0xa4, 0xbe,
  0xeb, 0x6b, 0x1a, 0x3e, 0x21, 0x59, 0x4c, 0xbf, 0x26, 0x20, 0x11, 0xbe,
  0xf3, 0x95, 0xfc, 0xbe, 0xbc, 0x88, 0x27, 0xbf, 0xf6, 0x3f, 0xf9, 0xbe,
  0x3b, 0x80, 0x2a, 0xbf, 0xb8, 0xe4, 0xf7, 0xbc, 0x36, 0xf4, 0xa8, 0x3d,
  0x68, 0xfd, 0x30, 0xbe, 0x56, 0xa3, 0xbc, 0xbd, 0xc2, 0xc3, 0xbf, 0xbd,
  0x23, 0xdb, 0x1d, 0xbf, 0x98, 0x66, 0x33, 0xbf, 0xe1, 0x1a, 0x08, 0xbf,
  0x63, 0x4c, 0x04, 0x3e, 0x72, 0xe8, 0x16, 0xbf, 0x20, 0x7d, 0x4f, 0xbe,
  0xfc, 0x3c, 0x3e, 0x3d, 0xaa, 0x0f, 0x03, 0xbf, 0x7d, 0x91, 0x14, 0xbf,
  0xd8, 0x91, 0x0e, 0xbf, 0x00, 0xa4, 0x38, 0x3a, 0xb3, 0x40, 0x24, 0xbf,
  0x8f, 0x58, 0x24, 0x3e, 0xf8, 0xf5, 0xd6, 0x3c, 0x07, 0x8b, 0x58, 0x3e,
  0x3b, 0x02, 0x1c, 0xbf, 0x42, 0x04, 0x3b, 0xbf, 0x77, 0x21, 0xc1, 0xbe,
  0x66, 0xca, 0xdf, 0x3d, 0x56, 0x3f, 0x1a, 0xbe, 0x6c, 0xc2, 0xe5, 0xbe,
  0xf3, 0x29, 0xc3, 0xbe, 0xdf, 0x95, 0x2a, 0xbe, 0xd1, 0xfa, 0x06, 0xbf,
  0x74, 0x64, 0x07, 0xbf, 0xf5, 0x41, 0xea, 0xbe, 0x35, 0x03, 0x4f, 0xbf,
  0xf0, 0xd1, 0x4c, 0xbf, 0x50, 0x95, 0x3d, 0xbd, 0xdc, 0x5e, 0xdb, 0xbe,
  0xfd, 0x51, 0x2b, 0xbf, 0x52, 0x62, 0x89, 0x3d, 0xdf, 0x75, 0x54, 0xbe,
  0x8f, 0x8e, 0x3b, 0xbe, 0x9c, 0xde, 0x0c, 0xbe, 0xbd, 0xc1, 0x02, 0xbf,
  0xf8, 0x21, 0x14, 0xbe, 0x8c, 0x39, 0x5f, 0x3d, 0x5f, 0xd5, 0x3b, 0x3e,
  0xe1, 0x29, 0x25, 0x3e, 0x7c, 0xa4, 0x7a, 0x3d, 0x9e, 0x19, 0x4d, 0xbe,
  0xe5, 0x1f, 0xe5, 0xbe, 0xba, 0xd9, 0x48, 0xbe, 0xf1, 0xd6, 0xe4, 0xbe,
  0x36, 0xbd, 0xf5, 0xbe, 0x5e, 0xe9, 0x30, 0xbe, 0xca, 0x5a, 0x5d, 0xbe,
  0x38, 0xf4, 0x9a, 0xbe, 0x4f, 0xe8, 0x00, 0x3e, 0xf1, 0xb5, 0x07, 0xbf,
  0x30, 0xee, 0x01, 0xbf, 0x97, 0x6f, 0x50, 0xc0, 0x93, 0xe0, 0xd5, 0xbe,
  0xc4, 0x03, 0x13, 0xbf, 0xc4, 0x2d, 0x70, 0xbe, 0x45, 0x75, 0x18, 0xbf,
  0x39, 0x64, 0xc7, 0xbe, 0xe5, 0x0b, 0xfc, 0xbe, 0x88, 0xda, 0x74, 0xc0,
  0xf4, 0x2e, 0x28, 0xc0, 0x3d, 0x6a, 0x6f, 0xc0, 0xcc, 0x89, 0x5f, 0xc0,
  0x35, 0x74, 0x4b, 0xc0, 0x7c, 0xdb, 0xda, 0x3f, 0x01, 0xb4, 0x27, 0xbe,
  0x4d, 0xd1, 0x0a, 0xbf, 0x86, 0x85, 0x7c, 0xc0, 0xbd, 0xe8, 0x12, 0xc0,
  0xed, 0x3d, 0x53, 0xc0, 0x1b, 0xa1, 0x4d, 0xc0, 0x95, 0x00, 0x03, 0xbe,
  0x0e, 0xe9, 0x0c, 0xbf, 0x0b, 0x53, 0x1f, 0xbe, 0x0e, 0x05, 0x80, 0xc0,
  0x85, 0xc0, 0x5a, 0x3e, 0x20, 0x55, 0xd1, 0xbe, 0x96, 0x77, 0x0e, 0xbf,
  0x1e, 0x50, 0x3d, 0xc0, 0x35, 0xb7, 0x7b, 0xbe, 0x7d, 0x4a, 0x37, 0xbe,
  0x6e, 0x4e, 0xe3, 0xbe, 0xeb, 0x1d, 0x50, 0xbe, 0x54, 0x15, 0xaf, 0xbe,
  0xa1, 0x47, 0xe4, 0xbe, 0x07, 0x53, 0x9c, 0xbe, 0x71, 0x06, 0xa0, 0xbe,
  0x3a, 0xa7, 0xae, 0xbe, 0xd1, 0xc1, 0x09, 0xbf, 0xea, 0x83, 0x52, 0x40,
  0x71, 0x48, 0xf6, 0xbe, 0xa1, 0x22, 0x02, 0xbf, 0xee, 0xcd, 0x26, 0xbf,
  0x12, 0xb9, 0xe3, 0xbd, 0x2d, 0xc7, 0x47, 0xbe, 0xab, 0x58, 0x6e, 0xc0,
  0x10, 0xf8, 0x4d, 0xc0, 0xe0, 0xea, 0xd6, 0xbe, 0x6b, 0xd6, 0x83, 0xc0,
  0x00, 0x90, 0xac, 0xbb, 0x43, 0xff, 0x70, 0xc0, 0x0e, 0xc1, 0x00, 0x3e,
  0x57, 0xe6, 0x62, 0xc0, 0xf0, 0x76, 0x52, 0xc0, 0x5b, 0xdc, 0x77, 0xc0,
  0x52, 0x38, 0x2a, 0xbf, 0x5f, 0xa4, 0x12, 0x3e, 0x7c, 0x56, 0x7d, 0xc0,
  0xb8, 0x16, 0xa0, 0xbe, 0xbb, 0xce, 0xaa, 0xbe, 0x85, 0x95, 0xd1, 0x3d,
  0xf4, 0xf9, 0x03, 0xbe, 0xf1, 0xb8, 0xef, 0xbe, 0x62, 0xe0, 0x46, 0xbf,
  0x06, 0x73, 0x10, 0xbf, 0x29, 0x49, 0x19, 0xbf, 0x7a, 0x8b, 0xf2, 0xbd,
  0x1a, 0xed, 0x37, 0xbf, 0xc1, 0xde, 0xc7, 0xbd, 0x2a, 0x15, 0x44, 0xbf,
  0xa3, 0x44, 0xd2, 0xbe, 0x52, 0xfb, 0x32, 0xbf, 0x84, 0x10, 0xe9, 0xbe,
  0x5e, 0x12, 0x48, 0xbe, 0xe2, 0x69, 0xa5, 0x3d, 0x6a, 0x57, 0x57, 0xbe,
  0x1c, 0xe8, 0x0e, 0xbd, 0x3d, 0x52, 0x34, 0xbe, 0xd1, 0x98, 0x13, 0xbf,
  0x97, 0x71, 0xe7, 0xbe, 0x47, 0x4c, 0x09, 0xbf, 0x67, 0x22, 0x24, 0xbe,
  0x5d, 0x01, 0x11, 0xbf, 0xd5, 0xc1, 0xe0, 0xbd, 0x76, 0x4a, 0xb6, 0x3d,
  0xcb, 0x58, 0x2b, 0xbf, 0xb0, 0xb1, 0x0d, 0xbf, 0xf8, 0x51, 0x20, 0xbf,
  0xb9, 0x6c, 0x18, 0x3e, 0x7e, 0x3d, 0xd2, 0xbe, 0x01, 0x46, 0x55, 0x3e,
  0xd5, 0xc8, 0x44, 0x3e, 0x3e, 0x13, 0x5c, 0xbe, 0x08, 0x47, 0xde, 0xbe,
  0xa7, 0xd7, 0x1e, 0xbf, 0x00, 0x56, 0xd6, 0xbe, 0x17, 0x64, 0x5b, 0x3e,
  0xb9, 0x83, 0x58, 0x3e, 0x5a, 0x8a, 0xd7, 0xbe, 0xa0, 0xc5, 0x15, 0xbf,
  0xfe, 0x4e, 0x53, 0xbe, 0x49, 0x5b, 0xe0, 0xbe, 0xc6, 0xbc, 0x13, 0xbf,
  0x74, 0x70, 0x22, 0xbf, 0x64, 0x8f, 0x4a, 0xbf, 0xea, 0xc2, 0x3e, 0xbf,
  0x5b, 0x65, 0x5a, 0xbe, 0xf3, 0xac, 0x28, 0xbf, 0xa7, 0x39, 0x28, 0xbf,
  0x22, 0x18, 0xbb, 0x3d, 0x80, 0x9e, 0xea, 0xba, 0x86, 0xa1, 0xbc, 0x3d,
  0x0b, 0x82, 0x0a, 0xbe, 0xa8, 0x3d, 0x2b, 0xbf, 0x5a, 0xf8, 0xe5, 0x3d,
  0xfc, 0x59, 0x30, 0xbe, 0xca, 0xff, 0x1c, 0xbe, 0x87, 0xca, 0x23, 0xbe,
  0x77, 0x1c, 0x51, 0xbe, 0x58, 0x09, 0x2f, 0xbe, 0x27, 0x42, 0xca, 0xbe,
  0xeb, 0x26, 0x23, 0x3e, 0x46, 0xf0, 0x18, 0xbf, 0xb7, 0xae, 0x0c, 0xbf,
  0x15, 0xde, 0xbd, 0xbe, 0x78, 0x49, 0x7f, 0xbd, 0xaa, 0xa5, 0xf5, 0xbe,
  0xdc, 0x94, 0x01, 0xbf, 0xa1, 0x77, 0x29, 0xbf, 0xb2, 0x28, 0xd7, 0xbe,
  0xd0, 0xf0, 0xdf, 0xbc, 0x64, 0xcb, 0xfa, 0xbe, 0x4e, 0xf6, 0xe3, 0x3d,
  0xfc, 0x59, 0x36, 0xbf, 0xc9, 0x68, 0x36, 0xbf, 0x07, 0x4a, 0xf1, 0xbe,
  0xf7, 0xb7, 0x4b, 0xbf, 0xe4, 0x3f, 0x2c, 0x3d, 0x27, 0x97, 0xf4, 0xbd,
  0xaf, 0xe4, 0x06, 0x3e, 0x84, 0xdd, 0x06, 0x3d, 0x8e, 0xd6, 0xd5, 0x3d,
  0xe7, 0x07, 0x1b, 0xbf, 0x3a, 0x10, 0xee, 0xbe, 0x2c, 0xf9, 0xd4, 0xbe,
  0x9c, 0x13, 0x5c, 0xbd, 0x9d, 0x67, 0xda, 0xbe, 0xab, 0xd4, 0x43, 0xbe,
  0x90, 0xd4, 0x39, 0xbd, 0x06, 0xfc, 0x46, 0xbf, 0x5b, 0x95, 0x3c, 0xbf,
  0x72, 0xfb, 0xf5, 0xbe, 0xd0, 0x18, 0x06, 0xbd, 0x13, 0xcf, 0x06, 0xbf,
  0x90, 0x16, 0x17, 0xbe, 0x48, 0xf2, 0x59, 0xbd, 0x20, 0x37, 0x4c, 0xbc,
  0xb6, 0x0a, 0x30, 0xbf, 0x17, 0x70, 0x47, 0xbf, 0x35, 0x44, 0x3b, 0xbf,
  0x64, 0x46, 0x57, 0x3d, 0xb8, 0x33, 0xe7, 0xbd, 0x2e, 0xb0, 0x23, 0xbf,
  0xb9, 0x24, 0xd8, 0xbe, 0x8a, 0x04, 0x9d, 0x3d, 0x1d, 0x9f, 0x45, 0xbf,
  0xa4, 0x58, 0x41, 0xbf, 0x9c, 0xd9, 0xe3, 0xbe, 0xc9, 0xa0, 0x45, 0xbf,
  0xaf, 0x11, 0x20, 0xbf, 0x00, 0x70, 0xa5, 0xb9, 0xc4, 0x57, 0xf7, 0xbe,
  0xc1, 0x3c, 0xc9, 0xbe, 0x6d, 0x69, 0x3a, 0x3e, 0x70, 0xb8, 0x19, 0xbc,
  0x57, 0x07, 0xdd, 0xbd, 0x8c, 0xeb, 0x94, 0xbd, 0xdf, 0xe0, 0x0a, 0xbf,
  0x79, 0x84, 0x5c, 0xbe, 0x55, 0x74, 0x40, 0xbe, 0xa7, 0x90, 0x4a, 0xbe,
  0x7f, 0xf1, 0x56, 0x3e, 0x62, 0x12, 0xac, 0xbd, 0xba, 0xbe, 0x98, 0x3d,
  0xfe, 0xf4, 0xc4, 0xbe, 0x88, 0x23, 0x8c, 0x3c, 0xbd, 0x9f, 0x14, 0xbf,
  0xcc, 0x32, 0x38, 0xbf, 0x0e, 0x74, 0xc8, 0xbe, 0xff, 0x90, 0x2c, 0xbe,
  0xac, 0xa6, 0x38, 0xbf, 0xd6, 0x91, 0xe1, 0xbe, 0x4d, 0xfe, 0xf1, 0xbe,
  0x43, 0xb4, 0x43, 0xbf, 0xb0, 0x98, 0x24, 0x3c, 0x3a, 0x33, 0x14, 0xbf,
  0x50, 0xef, 0x15, 0xbe, 0x1c, 0xc4, 0x50, 0xbf, 0xcc, 0x09, 0x41, 0xbf,
  0xe0, 0x5e, 0x00, 0xbf, 0x7c, 0x7f, 0x2d, 0xbf, 0x2c, 0x77, 0x8b, 0xbd,
  0x2a, 0x6d, 0x58, 0xbe, 0xb0, 0xb8, 0x9f, 0xbd, 0x00, 0xa7, 0x18, 0xba,
  0xc0, 0x73, 0xc5, 0xbc, 0x2e, 0x08, 0xc8, 0xbe, 0x0a, 0xb7, 0xd2, 0xbe,
  0x67, 0x7a, 0x3f, 0xbf, 0x0a, 0x7e, 0xc0, 0x3d, 0xfc, 0x0d, 0x1a, 0xbf,
  0xf0, 0x41, 0xdc, 0xbd, 0x0c, 0x55, 0x67, 0x3d, 0xcc, 0xc1, 0x28, 0xbf,
  0xf8, 0x63, 0x28, 0xbf, 0x7a, 0xc4, 0xe4, 0xbe, 0xcb, 0xee, 0xc2, 0xbd,
  0x93, 0x83, 0xfa, 0xbe, 0xec, 0x45, 0x21, 0xbd, 0xe5, 0x40, 0x28, 0x3e,
  0x90, 0x0a, 0xa5, 0x3c, 0x5b, 0x0f, 0x4b, 0xbf, 0xbf, 0x4e, 0x10, 0xbf,
  0x7c, 0x8e, 0x4a, 0xbf, 0x1b, 0xc1, 0x00, 0x3e, 0x5b, 0x21, 0x5a, 0x3e,
  0xaa, 0x40, 0xe9, 0xbe, 0xd8, 0xfe, 0x07, 0xbf, 0x37, 0xd5, 0x49, 0x3e,
  0x24, 0x10, 0x30, 0xbf, 0x9b, 0xf5, 0xd9, 0xbe, 0x49, 0x77, 0xd5, 0xbe,
  0x7f, 0x5a, 0xe5, 0xbe, 0xc6, 0xe3, 0x26, 0xbf, 0xab, 0x7d, 0xd2, 0xbd,
  0x4a, 0x3a, 0x35, 0xbf, 0xe5, 0xee, 0xdb, 0xbe, 0x00, 0x3e, 0xf1, 0x3a,
  0x42, 0x26, 0x8d, 0xbd, 0xc8, 0xb6, 0x5b, 0xbe, 0x22, 0x3f, 0xa4, 0xbd,
  0x6d, 0xc5, 0x09, 0xbf, 0xbb, 0xbe, 0x26, 0x3e, 0xb6, 0xb8, 0x07, 0xbe,
  0xd6, 0x2f, 0xbb, 0xbd, 0x82, 0x60, 0x14, 0xbe, 0xdc, 0xc8, 0x19, 0xbd,
  0x4d, 0x18, 0x49, 0x3e, 0x25, 0x02, 0x3a, 0xbf, 0xe8, 0x74, 0x9c, 0xbc,
  0xae, 0x3c, 0xff, 0xbe, 0x11, 0xa7, 0x02, 0xbf, 0xb2, 0x8e, 0x18, 0xbf,
  0x8e, 0x98, 0x07, 0xbe, 0x2a, 0x95, 0x00, 0xbf, 0x88, 0xac, 0xd2, 0xbe,
  0x29, 0x08, 0xd3, 0xbe, 0x8b, 0xb8, 0x33, 0xbf, 0xae, 0x45, 0xbe, 0xbd,
  0xf0, 0xf4, 0xe7, 0xbe, 0x8a, 0x53, 0xe8, 0xbd, 0xbf, 0x0c, 0xd3, 0xbe,
  0x82, 0xa0, 0x16, 0xbf, 0x87, 0x91, 0x36, 0xbf, 0x97, 0xfa, 0xe3, 0xbe,
  0x78, 0x7a, 0x49, 0xbe, 0x9b, 0x4e, 0x4c, 0x3e, 0x40, 0x58, 0x6e, 0xbd,
  0xee, 0xe7, 0xa6, 0xbd, 0xbb, 0x31, 0x26, 0xbe, 0xef, 0x32, 0xdf, 0xbe,
  0x73, 0x94, 0x1e, 0xbf, 0x74, 0x01, 0x15, 0xbf, 0x86, 0xf3, 0xdf, 0x3d,
  0x4a, 0xc8, 0xfc, 0xbe, 0xbf, 0x8e, 0x55, 0x3e, 0x51, 0xb3, 0x51, 0xbe,
  0x31, 0xd9, 0x02, 0xbf, 0x21, 0xf8, 0x05, 0xbf, 0x8e, 0xf9, 0x16, 0xbf,
  0x25, 0x53, 0x34, 0xbe, 0xd6, 0x2a, 0x38, 0xbf, 0x00, 0x29, 0x20, 0xbb,
  0x77, 0x6c, 0x54, 0x3e, 0xce, 0x05, 0x84, 0x3d, 0x4e, 0x22, 0x41, 0xbf,
  0xcb, 0xf4, 0xd5, 0xbe, 0xd5, 0x58, 0x1f, 0xbf, 0xc4, 0x79, 0x04, 0x3d,
  0xb0, 0xf5, 0x08, 0xbc, 0xed, 0x79, 0x32, 0xbf, 0x57, 0x7d, 0x2b, 0xbf,
  0x87, 0xf4, 0x23, 0x3e, 0x8a, 0x09, 0xd9, 0xbe, 0xdb, 0x02, 0x06, 0xbf,
  0x55, 0x3e, 0x3e, 0xbf, 0x67, 0x19, 0x18, 0xbf, 0x1c, 0x2a, 0xef, 0xbe,
  0x95, 0x70, 0x02, 0x3e, 0x9e, 0xb7, 0x1a, 0xbf, 0xfd, 0x93, 0xec, 0xbe,
  0x63, 0xbe, 0x3d, 0x3e, 0x11, 0xcf, 0x46, 0xbe, 0x83, 0xf8, 0xcb, 0xbd,
  0x80, 0xd2, 0x3b, 0x3b, 0x7c, 0xd8, 0x1e, 0xbf, 0x12, 0x0c, 0x93, 0xbd,
  0xe8, 0xe0, 0x02, 0x3d, 0xd6, 0x7d, 0x22, 0xbe, 0x85, 0xc1, 0x0f, 0x3e,
  0x86, 0xb4, 0xdd, 0x3d, 0xee, 0x47, 0x41, 0xbe, 0xfd, 0xbf, 0x0f, 0xbf,
  0xba, 0x52, 0xa1, 0x3d, 0x96, 0x14, 0x22, 0xbf, 0xa9, 0x24, 0x2d, 0xbf,
  0x98, 0xc5, 0xb0, 0xbe, 0x67, 0x56, 0x50, 0x3e, 0x6e, 0xe6, 0x33, 0xbe,
  0x1e, 0xdf, 0x5b, 0xbe, 0xd0, 0x91, 0x08, 0xbe, 0x94, 0xfe, 0x46, 0x3d,
  0x6a, 0x72, 0x10, 0xbf, 0x70, 0x44, 0x86, 0x3c, 0x59, 0x75, 0xd0, 0xbe,
  0x0a, 0xe3, 0xd9, 0x3d, 0x6e, 0x23, 0x82, 0x3d, 0xc7, 0x7a, 0xc8, 0xbd,
  0x4d, 0xea, 0x33, 0xbe, 0x0f, 0xe5, 0x1a, 0xbf, 0x68, 0x9e, 0x50, 0xbf,
  0xa3, 0xb1, 0x0b, 0xbf, 0x37, 0xe4, 0x02, 0xbf, 0x14, 0x4d, 0x29, 0xbf,
  0x68, 0x1d, 0xf0, 0xbc, 0x90, 0x90, 0xa1, 0xbd, 0xc4, 0xde, 0x18, 0xbd,
  0xc0, 0x33, 0xfd, 0xbe, 0xfa, 0x5d, 0x88, 0x3d, 0xc2, 0xa3, 0x12, 0xbf,
  0x7e, 0x2e, 0xd9, 0xbe, 0xfb, 0xd4, 0x22, 0xbe, 0xf5, 0xb4, 0x18, 0x3e,
  0xb2, 0xf7, 0x4a, 0xbe, 0xc1, 0x0b, 0xe8, 0xbe, 0x6c, 0xb6, 0x33, 0x3d,
  0x34, 0x57, 0xf1, 0xbe, 0x4a, 0xc6, 0x4f, 0xbf, 0xc3, 0x3b, 0xdf, 0xbe,
  0xc8, 0x71, 0x46, 0xbe, 0x2d, 0x3c, 0x5a, 0x3e, 0x37, 0xa3, 0x46, 0x3e,
  0xce, 0x47, 0x3b, 0xbf, 0x86, 0x5a, 0x24, 0xbf, 0x18, 0x64, 0xcd, 0xbc,
  0x3a, 0x3c, 0xdc, 0xbd, 0x23, 0x3f, 0x10, 0xbf, 0x62, 0x5e, 0x81, 0xbd,
  0x68, 0x1d, 0xd5, 0xbd, 0xd5, 0xa7, 0x40, 0x3e, 0xe5, 0x2a, 0x59, 0x3e,
  0x84, 0x24, 0x9f, 0xbd, 0x8a, 0xd6, 0x35, 0xbf, 0x17, 0xc4, 0x36, 0xbe,
  0x90, 0xfa, 0xd4, 0xbc, 0xed, 0x65, 0x12, 0xbf, 0x41, 0xc2, 0x34, 0xbf,
  0xfd, 0x16, 0xe9, 0xbe, 0xd3, 0x3d, 0x24, 0xbf, 0x96, 0x42, 0xb8, 0x3d,
  0x3a, 0x35, 0x0a, 0xbf, 0x91, 0x72, 0xeb, 0xbe, 0xd3, 0x96, 0xf4, 0xbe,
  0x6a, 0x4a, 0x01, 0xbf, 0x29, 0xdb, 0x43, 0xbf, 0x8b, 0x57, 0x2f, 0xbf,
  0x01, 0x8a, 0x1a, 0x3e, 0xf5, 0x51, 0x2a, 0xbf, 0x5c, 0x50, 0x07, 0xbd,
  0x56, 0xae, 0xd8, 0x3d, 0x40, 0xf2, 0x4c, 0xbd, 0xa7, 0x11, 0xd7, 0xbe,
  0xb8, 0xad, 0x34, 0xbf, 0x95, 0x39, 0x2d, 0xbf, 0xab, 0x8c, 0x14, 0xbf,
  0x08, 0x5b, 0x08, 0xbf, 0x4d, 0xcb, 0xec, 0xbe, 0x44, 0x91, 0x09, 0xbf,
  0xd6, 0x6e, 0x13, 0xbf, 0x8a, 0xbf, 0x16, 0xbf, 0xde, 0x79, 0x26, 0xbf,
  0x12, 0xa0, 0x35, 0xbf, 0xfd, 0x34, 0x15, 0xbf, 0x30, 0xfb, 0x22, 0xbf,
  0x4c, 0x51, 0x32, 0xbf, 0xdf, 0x49, 0x14, 0xbf, 0x66, 0x7d, 0x09, 0xbf,
  0x70, 0x9f, 0xd2, 0xbe, 0xec, 0x35, 0xcc, 0xbe, 0x5c, 0x56, 0xde, 0xbe,
  0x32, 0x77, 0x0c, 0xbf, 0xb2, 0xe8, 0x4e, 0xbf, 0xe3, 0xa4, 0x0c, 0xbf,
  0x75, 0x38, 0x4d, 0xbf, 0x38, 0xba, 0x15, 0xbf, 0x05, 0x0c, 0xf1, 0xbe,
  0xae, 0xea, 0x03, 0xbf, 0x9e, 0x2c, 0x38, 0xbf, 0xed, 0xc6, 0x24, 0xbf,
  0x0a, 0x78, 0x43, 0xbf, 0xac, 0x6c, 0x4b, 0xbf, 0x78, 0x7f, 0x25, 0xbf,
  0xa4, 0x68, 0x10, 0xbf, 0x03, 0x12, 0x2a, 0xbf, 0xf1, 0x3d, 0x03, 0xbf,
  0x35, 0x7d, 0x0d, 0xbf, 0x92, 0xfd, 0x1d, 0xbf, 0xf8, 0x9c, 0x47, 0xbf,
  0x8c, 0x6b, 0x49, 0xbf, 0x49, 0xc9, 0xdf, 0xbe, 0x96, 0x43, 0x3a, 0xbf,
  0xd1, 0xcc, 0xc9, 0xbe, 0xaf, 0x47, 0x14, 0xbf, 0xf6, 0x3f, 0x43, 0xbf,
  0xa0, 0xdd, 0x17, 0xbf, 0x2e, 0xef, 0xdc, 0xbe, 0x86, 0x1d, 0xfd, 0xbe,
  0xda, 0x67, 0xf0, 0xbe, 0xf1, 0xfe, 0x38, 0xbf, 0xc6, 0x66, 0x38, 0xbf,
  0x3e, 0xcc, 0x38, 0xbf, 0xba, 0xc2, 0xd3, 0xbe, 0x3f, 0x7d, 0xfa, 0xbe,
  0xe0, 0xff, 0xe1, 0xbe, 0x5a, 0xe3, 0x37, 0xbf, 0x62, 0xdb, 0x17, 0xbf,
  0x83, 0xb9, 0xcb, 0xbe, 0xed, 0x4a, 0x3b, 0xbf, 0x82, 0x28, 0x29, 0xbf,
  0x35, 0x7a, 0x12, 0xbf, 0xc5, 0x3e, 0x4e, 0xbf, 0x7b, 0xf6, 0x36, 0xbf,
  0x36, 0x78, 0x42, 0xbf, 0xb6, 0x08, 0x27, 0xbf, 0xab, 0x6b, 0xf6, 0xbe,
  0x11, 0xdf, 0xe5, 0xbe, 0xb8, 0xd5, 0xb7, 0x3e, 0x4c, 0x21, 0x6d, 0x3f,
  0xdd, 0x28, 0xdf, 0x3e, 0x87, 0x33, 0x17, 0x3e, 0x0b, 0x48, 0x63, 0x40,
  0xb9, 0xff, 0xab, 0x3e, 0x35, 0x51, 0x05, 0x3f, 0x70, 0xcf, 0xba, 0x3e,
  0xd4, 0x8b, 0x15, 0x3f, 0x5b, 0xad, 0x95, 0x3e, 0x00, 0xd3, 0x71, 0x3d,
  0x99, 0x27, 0x95, 0x40, 0xfb, 0x4b, 0x58, 0x40, 0x51, 0x65, 0x3f, 0x40,
  0xc4, 0x2a, 0x5d, 0x40, 0xec, 0x4a, 0x9a, 0x40, 0x27, 0xa6, 0x11, 0x40,
  0x02, 0x30, 0x3d, 0x3d, 0x2f, 0xd9, 0xbd, 0x3e, 0xf3, 0xe5, 0x74, 0x40,
  0x5f, 0xdc, 0x39, 0x40, 0x73, 0x22, 0x81, 0x40, 0x3e, 0xd0, 0x48, 0x40,
  0x2e, 0xc5, 0xa0, 0x3d, 0x3a, 0x87, 0x76, 0x3e, 0xa4, 0xb2, 0x29, 0x3f,
  0x15, 0x1f, 0xac, 0x40, 0x10, 0x67, 0xf3, 0x3e, 0xbd, 0x50, 0x5e, 0x3f,
  0xf6, 0x75, 0x96, 0x3e, 0x5d, 0x84, 0xb7, 0x3f, 0xd2, 0x5f, 0x96, 0x3e,
  0x13, 0xbc, 0x10, 0x3f, 0x85, 0x27, 0x18, 0x3e, 0x3d, 0x4e, 0x94, 0xbc,
  0x88, 0xdb, 0xaa, 0xbd, 0x58, 0x3f, 0x6f, 0x3e, 0x7d, 0x53, 0x99, 0x3e,
  0xfb, 0x0c, 0x00, 0x3f, 0x45, 0x44, 0x7f, 0x3e, 0xac, 0xaa, 0x35, 0x3d,
  0xf8, 0x40, 0x68, 0x40, 0xa8, 0x59, 0x9d, 0x3e, 0x29, 0xe6, 0x0e, 0x3e,
  0xc1, 0x7a, 0x14, 0x3f, 0xec, 0x59, 0xd9, 0x3d, 0xe0, 0xe6, 0xc7, 0x3d,
  0xa8, 0xb5, 0x7a, 0x40, 0xae, 0xec, 0x74, 0x40, 0x37, 0x81, 0x22, 0x3f,
  0x06, 0x16, 0xb0, 0x40, 0x4e, 0x59, 0x50, 0x3f, 0x57, 0x03, 0x86, 0x40,
  0x51, 0x91, 0xa9, 0x3f, 0xeb, 0x1a, 0xc4, 0x3f, 0xeb, 0x75, 0x4b, 0x40,
  0xf3, 0xb4, 0x98, 0x40, 0x40, 0xff, 0xf3, 0x3e, 0x07, 0xae, 0x15, 0x3f,
  0x01, 0x4e, 0xb6, 0x40, 0xfa, 0xce, 0xb3, 0x3c, 0xfd, 0x79, 0x86, 0x3e,
  0xfc, 0x17, 0xc5, 0x3f, 0x62, 0x6f, 0x29, 0x40, 0x35, 0xc7, 0x30, 0xbe,
  0x75, 0x4d, 0xce, 0x3e, 0x78, 0xee, 0x6d, 0xbc, 0x29, 0x44, 0x2a, 0x3d,
  0xe4, 0x6e, 0x80, 0xbe, 0x28, 0x7a, 0x26, 0x3e, 0x6a, 0x23, 0x43, 0xbf,
  0xa2, 0x01, 0xe3, 0x3d, 0xb1, 0x0b, 0xd3, 0xbd, 0xc4, 0xe9, 0x31, 0x3d,
  0x14, 0x54, 0x2f, 0xbe, 0xe9, 0x7d, 0x39, 0xbe, 0x76, 0xed, 0x70, 0x3f,
  0xdb, 0x6d, 0x1d, 0xbf, 0x56, 0x8d, 0x85, 0xbe, 0x44, 0xe2, 0x4c, 0x3e,
  0xde, 0x6b, 0x0e, 0x40, 0x8b, 0x54, 0xcb, 0xbc, 0xd7, 0x4b, 0x42, 0x3d,
  0x94, 0x96, 0xa0, 0xbe, 0x37, 0x5c, 0x8f, 0x3f, 0xbd, 0xdc, 0x6d, 0x3c,
  0x7e, 0x09, 0x91, 0xbe, 0x8d, 0xc0, 0x7e, 0xbe, 0x9e, 0xe1, 0x60, 0xbe,
  0x29, 0xfc, 0x69, 0x3e, 0x43, 0x42, 0x0a, 0x3e, 0x20, 0xaf, 0x03, 0xbd,
  0x4b, 0xfb, 0xce, 0xbd, 0x55, 0x3e, 0x8f, 0xbe, 0x73, 0x6f, 0x8c, 0xbe,
  0xa8, 0x3a, 0x8a, 0xbd, 0x40, 0x05, 0xd4, 0xbd, 0x88, 0xb9, 0x4a, 0xbe,
  0x52, 0x11, 0x72, 0x3d, 0x83, 0xca, 0xbe, 0xbd, 0x88, 0x0b, 0x7f, 0x3d,
